02
0F
14
6F
65
6D
17
01
0A
72
60
0A
71
11
09
66
0D
69
19
14
66
09
61
13
1D
17
0D
19
7D
7B
6D
78
73
5B
0E
77
6A
5F
5D
1A
79
6E
0D
73
0F
6E
0A
01
0B
5B
0B
0A
01
72
71
1A
03
7D
7E
00
7A
11
75
08
19
09
74
7E
20
76
06
7C
0D
5C
78
00
2D
06
18
05
7A
0B
7C
75
08
79
77
6D
0A
75
74
5B
0C
7E
7D
03
07
60
15
6E
0D
73
7E
0C
64
76
5D
7D
73
65
13
6C
72
68
67
71
64
12
09
65
21
02
21
0F
7A
2A
08
79
0C
14
10
01
01
04
76
15
6A
6D
0A
07
70
15
63
0A
0E
07
0C
70
0D
7D
0C
18
17
1D
19
78
7C
69
7C
11
08
7A
6B
7B
13
78
10
7A
74
0D
13
6F
6E
67
11
1D
6E
0B
6E
7B
6A
69
69
73
63
14
7B
04
7A
05
0B
78
7E
73
77
7B
7F
14
7D
65
06
74
00
6B
21
15
75
12
08
7C
08
7F
0B
72
7F
12
15
06
6F
0F
08
74
15
6D
19
78
77
6B
7B
74
6E
06
7D
05
16
6B
6D
01
73
6D
09
07
75
05
64
7C
78
1A
74
11
15
15
15
0C
7F
00
12
72
18
10
74
7B
6C
0E
66
08
70
7B
6D
06
7D
77
6E
19
0F
12
7A
04
08
03
05
01
03
17
1B
01
1D
65
79
08
20
79
0E
02
7D
1A
0A
72
72
6C
12
72
10
19
01
05
17
19
06
66
7A
6E
16
70
19
18
6E
04
6E
03
6C
6E
7D
07
79
79
70
0D
76
7B
14
7D
6A
75
03
17
73
67
6A
01
7B
72
7B
70
00
6B
09
03
69
73
0E
6F
19
11
18
76
69
19
0F
12
76
10
13
08
77
7A
71
06
19
7E
13
18
01
0A
04
11
79
73
73
0C
6A
72
7B
10
6D
7A
6D
1F
7D
07
09
6B
74
6C
15
78
7F
01
71
6B
18
18
0B
13
64
19
19
0C
03
1A
7B
02
0E
78
0A
14
08
7D
01
72
0F
73
01
03
78
69
1C
65
69
73
07
11
74
0E
6C
0B
05
00
71
1D
12
6D
17
08
07
7E
03
0A
01
0F
6F
6E
16
6D
07
65
10
0B
6B
07
00
70
73
6F
6C
04
6E
03
6E
7F
77
75
7E
0F
16
7A
68
16
72
6F
75
04
6D
69
0A
79
11
7C
03
00
75
0B
0B
05
13
0F
08
72
79
16
64
69
6F
74
75
06
79
7F
7A
1A
74
6E
68
0E
67
04
7A
6E
74
6C
0E
00
0C
0B
6A
6A
7E
6F
78
10
15
62
70
0C
10
69
05
1F
77
02
07
63
7E
7C
7F
15
15
6B
7C
0D
6C
05
6F
78
62
78
7C
6B
19
01
1A
1D
07
0C
6B
04
6C
0C
12
02
0A
75
6D
62
1A
66
77
04
7F
74
6D
1A
02
01
14
7D
66
0F
78
08
00
14
7B
7C
17
17
6A
63
7F
02
03
08
7D
6C
02
75
7C
0E
67
7B
79
0D
7F
02
69
72
15
0A
14
74
10
74
67
17
00
63
00
7B
16
7B
68
09
07
7F
7D
0C
03
76
7C
65
76
72
10
76
00
71
0A
12
0A
04
00
69
0F
65
0A
6C
6E
7C
70
77
6D
03
12
77
75
19
6E
7C
74
78
09
02
04
6C
19
78
01
12
76
70
05
1A
10
67
7D
10
77
0D
77
62
69
6F
62
17
7E
78
16
04
06
10
76
67
71
68
15
09
6C
0F
19
6A
74
10
6B
12
11
7D
08
6F
75
10
09
1B
73
74
04
70
1D
7C
73
7E
6A
6C
13
72
20
73
7F
06
06
08
1A
1A
63
00
08
07
76
19
6E
00
19
7F
1D
03
73
7B
08
0C
6C
7D
7B
67
6A
6F
71
7B
08
18
20
6E
75
14
6A
6C
10
0A
18
78
00
73
61
04
67
09
72
63
1A
6E
01
16
7A
78
6E
6E
77
0B
12
03
14
05
7E
68
7A
17
07
0A
0A
0E
09
67
28
0C
63
6C
17
76
6C
0C
02
7F
6A
01
6D
1F
7E
14
16
06
7E
70
04
76
7A
17
0F
68
6F
76
0C
0B
74
70
14
17
23
18
0D
74
08
11
66
11
15
7D
05
75
71
7C
79
67
75
1A
00
10
19
6C
7E
0C
04
7A
03
6E
6F
66
6A
75
6C
0B
06
04
08
76
6F
09
6E
08
0B
75
01
05
6D
07
18
13
02
09
09
05
0A
6A
67
15
05
06
77
16
75
75
6A
00
76
6C
17
04
1B
68
16
78
01
0C
04
11
00
04
0B
71
04
07
7C
6C
08
0A
68
11
19
1C
7F
73
22
72
6E
79
0F
7D
75
08
77
0E
63
74
0D
11
78
7A
00
7F
76
62
7A
04
16
11
03
18
0E
7B
6F
12
00
09
75
0F
03
7D
7F
0F
76
77
03
78
01
0C
70
65
1A
7B
11
6C
7B
13
73
0B
78
03
6D
13
04
6D
14
06
6B
05
7C
08
75
11
26
69
0E
0C
72
69
64
79
7C
76
76
6E
17
78
01
05
05
7C
73
74
78
18
66
07
0B
01
6E
72
7E
03
12
0C
6C
6E
67
0E
73
69
71
79
6C
1A
16
15
79
0F
17
0F
74
71
14
6B
16
00
0E
02
19
20
75
03
1F
0E
6F
14
08
77
7D
76
15
11
65
77
19
0B
6C
14
0F
0C
17
12
16
6B
07
02
7A
6A
6E
1D
66
79
65
05
6D
13
7B
6C
1E
6E
65
7A
74
64
03
05
12
6B
73
63
78
76
67
67
06
0B
67
78
01
03
76
79
6F
16
15
63
6A
7C
75
7F
0D
65
70
69
73
6A
19
00
76
6B
05
65
78
78
03
0D
08
00
14
66
6D
17
6C
15
12
1A
72
79
00
61
07
70
79
10
6F
0F
01
7D
65
6D
05
74
74
05
68
01
11
66
73
6D
65
01
1C
66
71
76
67
1B
08
7E
09
0E
09
71
67
0F
6F
7A
11
70
7B
6E
65
0E
19
1A
6F
6A
71
14
16
12
75
00
12
18
19
6D
73
78
77
0D
12
77
03
17
06
6E
7D
01
77
0C
0A
76
13
6D
12
6A
6E
09
74
7A
0B
7F
13
10
17
03
64
05
00
77
0B
6A
69
77
0C
0B
7C
71
74
7E
74
08
7C
69
78
02
08
14
6E
1C
6B
0D
79
0F
1E
74
03
18
77
7C
67
6F
65
6A
09
67
79
67
00
05
72
74
1D
07
18
00
07
04
6B
75
00
0B
0D
04
74
0F
7B
03
13
03
6C
69
68
09
16
78
1D
6D
68
7F
06
70
68
19
70
6E
69
04
19
0F
13
15
70
0E
78
68
11
19
75
09
04
78
6C
0B
19
67
03
6D
69
09
18
04
71
1F
7E
02
11
79
18
7B
14
76
79
12
01
16
71
0E
18
71
73
68
68
7B
65
09
6F
15
7D
6B
70
14
70
04
1E
66
78
08
65
7D
75
1A
16
7D
73
06
1D
1E
78
7A
7D
1B
00
7E
72
07
00
79
68
18
78
0A
08
65
7C
70
14
78
0B
76
6F
0D
14
02
7F
77
13
1D
7A
1D
00
69
00
7B
7F
74
6B
01
79
04
77
0A
04
67
08
6A
01
69
71
7A
05
06
1B
15
70
66
02
1C
6A
03
1D
6E
73
0C
74
6B
04
7C
7D
75
19
20
0A
00
68
10
1F
01
0C
70
7E
00
5F
02
08
0D
7A
7E
07
0E
65
0F
16
61
16
78
78
66
78
7D
6F
71
70
70
6D
7D
0C
6D
08
17
02
72
0E
09
03
10
03
71
10
65
0B
71
7F
6E
0A
00
03
11
12
7D
13
79
17
0D
7E
7B
73
74
0A
0C
77
0C
72
70
0C
6C
0F
0D
6F
0F
12
01
01
78
16
77
07
05
75
05
11
06
7F
67
0E
14
09
0B
75
09
01
6D
08
15
5C
07
0C
6A
7D
76
1A
6E
10
10
19
74
13
6A
0B
78
6A
0F
72
14
00
7C
7D
0B
1D
70
01
0E
0C
0A
6D
15
1A
11
7A
7E
61
0D
79
6F
19
7C
6D
07
0E
0F
7B
02
67
6A
6E
06
73
72
66
6E
01
7F
09
76
71
0F
69
14
6C
77
22
18
1A
08
0A
0E
6E
6D
75
75
10
7E
1B
7D
72
77
7D
06
1F
0B
15
71
05
67
0C
6F
7B
6F
06
5B
0E
64
6E
67
76
69
73
6A
0C
7A
6A
01
0F
01
15
6D
70
07
0B
10
7C
6C
71
72
7E
6A
7D
19
68
79
17
0C
0A
15
7E
77
17
6C
01
1B
0E
12
03
1D
76
02
22
6C
70
6E
14
7B
74
16
7F
0C
10
15
6B
15
6F
0A
05
1B
06
6F
15
18
01
12
6D
00
0E
72
6F
66
66
09
74
62
0B
17
72
6E
68
72
05
14
18
76
72
09
7E
77
6E
02
78
04
17
0C
1B
0A
73
0C
0D
65
7B
65
70
6B
05
18
77
6B
1A
7D
22
7B
07
08
77
73
17
6C
07
7E
01
74
10
72
79
73
71
0F
11
6B
0A
06
6C
15
13
7A
08
7B
75
08
5D
09
65
64
79
67
7F
6D
0A
02
05
72
1E
72
6F
66
18
6E
6D
01
0A
04
02
7F
72
1D
16
7A
04
7C
64
6B
76
04
13
64
62
6E
06
78
7F
7F
13
7D
0A
1D
24
08
1A
14
7A
77
74
05
0D
09
6A
77
6B
16
7E
76
15
08
7D
73
7A
78
72
03
6B
68
68
02
7A
05
60
79
66
7C
17
15
0A
02
18
07
14
05
15
6E
03
62
04
03
10
19
79
68
24
7A
17
6A
11
79
09
70
11
09
7E
68
1A
09
78
71
0D
0F
14
10
78
76
62
7A
7D
03
0D
7C
27
0D
59
67
7F
09
74
02
72
64
15
1E
13
77
13
05
5B
74
0A
04
0D
0B
7C
72
72
18
0E
0D
11
09
1B
73
0A
0A
0E
71
02
64
6E
6F
7F
7F
06
17
15
07
15
14
19
6E
74
23
6E
14
0D
7D
71
0A
13
13
06
66
0C
75
14
1D
5D
11
00
64
73
7C
13
12
08
14
09
04
65
02
7C
6E
01
18
0D
06
19
23
71
09
73
04
7C
74
10
79
77
10
7F
71
1F
77
20
0B
7B
67
07
0B
68
6A
24
63
71
0F
08
74
6A
68
72
01
11
03
04
20
14
08
63
6B
1C
6F
74
11
67
0F
72
16
14
04
7F
11
72
09
15
67
04
72
09
65
7B
03
78
66
6D
6C
7F
1C
03
0F
1F
6E
68
7D
09
66
68
62
63
14
1D
14
7C
12
13
72
06
13
0F
02
03
00
77
77
6B
7E
70
7F
0B
09
75
0B
06
6A
7E
00
75
74
19
75
05
71
6C
63
64
7B
7B
1E
0F
01
11
72
24
14
16
6C
72
11
77
00
16
19
1A
5C
0F
70
1A
0F
19
10
0E
0B
16
7A
06
0D
72
75
05
07
11
00
75
09
74
11
64
05
1F
12
03
02
6D
0E
0F
72
7A
08
1F
73
0B
02
64
1E
77
07
6B
0A
02
74
03
78
03
7A
60
18
19
71
7B
15
00
0F
7E
7E
7E
12
08
7A
1B
7E
07
7D
0A
6E
74
07
0D
7C
7E
78
64
68
0F
7A
0A
12
7B
12
0D
7D
6D
7F
78
7A
75
67
01
16
0C
17
0A
04
68
79
66
0A
7D
62
10
78
0E
08
6E
7F
68
0C
10
7B
6C
04
00
6C
6A
73
7B
7B
0A
6D
77
04
1E
7F
10
02
0A
0F
7B
6E
15
65
16
78
72
6D
74
65
08
6E
2A
0D
13
09
19
7D
0A
10
27
7E
10
15
71
02
07
6F
7A
6F
18
0A
65
0E
09
79
0D
02
79
00
0C
10
78
6C
6B
05
08
14
01
63
01
13
26
0C
0E
76
10
79
66
7D
04
06
10
73
04
6A
78
02
14
03
03
6B
7E
72
14
17
16
1C
7F
6D
29
1B
6E
78
6D
15
65
7A
7A
7E
5E
7F
77
01
69
10
01
76
02
63
6D
15
6E
10
0E
10
79
13
78
11
17
63
14
03
78
7C
7B
1B
12
07
6C
01
1E
6D
03
0B
04
7F
21
7B
78
06
09
68
75
74
67
6F
78
70
14
6D
17
6D
7B
7E
02
69
13
1D
70
7A
77
68
14
72
64
7D
7B
06
76
6F
15
04
13
10
0D
7F
74
7D
0C
02
73
68
62
63
10
61
0C
02
74
18
6E
7C
7B
06
6A
7E
06
6F
63
68
6E
6F
6E
0D
01
6D
7E
7A
73
03
7B
72
7A
79
7E
6A
1D
05
6B
7C
0A
71
09
7B
0D
74
67
69
1F
08
1A
06
64
0A
6D
06
67
7F
73
7A
0C
68
05
1B
78
09
7B
68
16
04
75
11
7B
1E
15
02
6E
08
26
06
06
7A
6D
0A
00
00
12
78
0D
6B
12
72
77
6F
05
17
76
66
04
7E
03
74
6D
79
77
05
10
6F
5B
20
06
7A
19
7C
13
00
0A
15
69
74
6A
7A
11
5F
69
77
71
13
27
6C
62
7F
1A
03
65
7C
03
0F
7C
16
19
0D
1A
70
79
0E
06
12
64
00
01
0E
17
79
0E
00
68
73
0A
64
7C
79
00
7A
07
0C
0C
6D
6B
73
74
08
7E
72
02
05
10
6D
0E
04
09
0F
6A
6B
7C
06
7E
11
00
79
5A
04
78
0E
0E
6C
27
6D
7F
18
07
66
05
6D
66
7F
6E
06
18
7A
7F
20
01
75
05
74
07
1A
78
0C
11
76
74
05
02
72
0B
7D
69
01
15
74
18
21
69
04
75
77
02
14
72
11
05
78
6B
12
6A
76
0D
02
74
7D
06
01
79
66
02
14
06
04
12
07
74
77
12
6E
07
02
17
7A
6E
67
1F
16
19
00
7E
06
14
17
6C
18
01
7E
66
06
16
11
76
71
7D
0C
79
1A
68
64
65
72
70
64
06
12
20
6A
7D
05
00
16
7D
66
7E
67
01
17
67
0E
63
0C
77
06
00
15
6E
71
14
0C
15
73
78
73
09
0C
6D
74
0A
75
05
73
72
11
70
0F
03
7B
1F
7A
0C
11
63
71
11
66
7D
66
14
12
74
7A
06
6A
01
17
6E
0E
19
20
78
18
74
0F
7B
15
6F
69
0B
12
76
6D
15
69
78
0F
7F
1A
71
00
02
0A
70
19
12
7D
04
0C
74
70
18
0C
77
18
12
0A
01
03
06
76
0F
00
6F
67
74
12
13
70
06
64
64
6D
0C
07
6E
04
19
7A
7A
7C
74
02
7F
05
17
08
0F
00
6C
79
75
10
04
7E
7C
67
71
11
18
7B
7B
0A
0F
03
05
6D
14
6C
19
6D
7D
6C
08
0C
6C
70
12
18
7C
63
12
7E
0E
0E
04
7C
73
06
13
71
04
7D
72
0D
11
01
63
78
78
08
17
7C
7F
07
68
07
09
78
79
77
63
03
1E
19
6D
6E
7E
00
17
7C
7E
66
0D
10
0C
03
0D
76
16
06
7E
75
6E
0C
0C
76
0A
6A
13
6C
08
66
70
00
17
6F
77
09
72
7E
77
13
1A
78
7E
10
0D
7D
05
09
08
7C
67
03
1F
11
0F
79
03
04
6D
70
14
71
06
6E
6F
19
79
05
10
11
65
7E
6D
74
7C
70
0A
79
15
0F
6C
73
74
15
7E
0E
10
6D
7F
7F
6E
72
16
0C
12
0F
6E
12
0B
6E
75
70
0C
73
7A
74
10
68
7E
69
71
6D
77
0D
08
74
06
71
01
0E
15
74
6F
1C
6C
03
72
0C
7C
10
62
66
7E
64
04
10
66
61
07
7C
1B
75
1C
7B
14
09
77
70
0C
7D
02
17
0A
00
68
71
77
05
03
72
72
0D
17
12
02
6A
0E
7A
02
6E
6F
08
70
0A
07
03
24
1A
75
13
05
18
67
17
70
64
6C
14
70
01
7B
01
66
0C
71
7D
6C
03
76
66
73
70
6B
08
13
79
7B
67
67
70
11
72
12
70
11
75
75
16
16
67
16
14
11
7D
19
04
06
08
20
76
0D
75
17
7E
65
76
0C
71
73
63
06
6B
77
0C
77
18
0E
09
65
05
61
08
0B
1A
0A
7D
7E
04
75
79
0F
0A
12
13
77
00
08
75
72
6E
16
0C
71
19
16
13
17
05
20
76
68
66
04
1E
66
02
7D
01
08
69
6F
64
7C
09
00
04
74
74
6C
17
08
02
1A
00
2B
7E
21
7C
75
1A
7D
15
18
11
15
0B
14
7A
17
08
69
0A
79
16
70
09
04
7E
7C
13
02
09
7E
7C
6A
78
09
64
03
0F
22
6C
00
68
6A
09
0B
1B
0F
70
08
11
0A
79
72
11
06
00
1A
16
7B
73
77
03
04
7A
76
7B
78
69
10
6A
69
11
75
22
7F
79
78
0D
77
75
19
7E
11
0B
73
7F
7A
6A
7E
6B
6A
74
79
08
1D
04
27
72
06
69
04
7F
6C
0A
00
0F
7C
12
08
07
67
11
1D
7D
68
17
7A
0E
6D
7A
65
72
0F
12
02
7F
65
7F
00
62
2F
08
1B
06
64
72
06
6E
78
11
70
56
03
7E
02
75
7C
7F
70
65
7C
7C
77
71
7A
01
78
6C
69
62
7E
71
6F
7B
20
02
20
65
72
67
7F
12
71
67
7B
08
0E
0F
6A
1D
16
7A
13
00
7A
69
63
74
00
79
72
64
72
5E
7F
63
69
6D
68
6F
19
7C
0E
15
63
26
12
0A
01
0A
7D
6F
63
73
15
0C
18
71
08
6E
76
20
78
01
03
74
73
74
09
07
6F
13
6F
00
73
7E
0E
0D
13
0F
12
7B
0A
7A
09
08
73
6D
72
03
00
03
72
6B
77
61
74
06
77
12
18
22
09
11
09
7F
02
65
13
0A
14
79
08
7C
13
1D
6F
0B
77
7D
0B
17
7E
05
11
05
09
0C
13
76
65
09
26
6C
1F
6B
0E
74
11
05
07
07
01
6C
1E
6F
00
72
78
07
0E
03
0B
09
11
7F
64
10
09
7D
69
70
70
0F
16
0D
73
11
75
77
0F
16
0D
15
7C
13
19
75
7B
13
0B
66
09
07
16
12
0B
25
1B
77
0A
0D
6B
6C
6A
7C
17
05
0A
20
77
7A
17
66
67
63
19
69
1E
79
69
11
1B
69
08
68
01
0A
02
11
76
13
18
00
67
73
69
09
70
04
70
00
23
14
79
63
66
1D
66
12
0B
73
6A
62
0D
0B
0C
6A
0C
17
08
06
0F
17
7A
21
72
69
19
12
06
19
76
69
06
09
76
09
07
76
04
78
0C
01
7E
7E
04
67
02
04
6F
14
04
0A
73
19
0C
16
76
09
7B
07
1B
74
6A
08
22
0C
7F
00
74
17
15
16
6F
6A
0C
03
0F
12
79
67
63
66
03
0A
17
7D
12
16
73
79
6B
79
68
01
0B
13
15
79
62
0B
13
69
13
66
1A
0D
6C
00
19
69
6B
75
0E
6E
6D
13
14
10
66
04
6C
1D
68
68
0F
71
6C
6F
0C
7F
0C
18
65
06
73
6B
1C
08
1A
7A
13
72
01
13
77
02
1A
6F
07
0E
65
70
7E
72
7B
7A
04
78
10
13
15
77
00
05
0E
74
14
6C
18
6C
75
05
70
0F
0E
11
6D
6B
06
11
0A
15
19
04
19
15
15
16
1A
10
0E
7B
7F
6C
6C
11
7E
02
0C
1E
03
17
22
6C
06
6A
7C
08
6B
6D
65
17
7E
72
16
05
79
0F
77
6A
7A
0A
0B
6F
76
7B
03
7C
7B
05
0C
15
09
04
7A
08
69
6F
70
0C
70
67
0F
14
71
0C
72
10
10
03
19
73
1A
73
73
66
75
7D
6E
7B
01
70
7C
10
18
6B
7D
1A
0C
6C
7C
60
15
6B
11
0D
6D
6E
0E
77
06
68
7E
64
0A
6D
02
6C
08
0C
73
7E
0B
0E
12
02
15
17
0D
0E
0D
7C
0B
75
70
17
0E
0F
0B
6E
64
05
13
66
19
0D
17
66
01
08
11
04
7D
05
75
7D
06
74
6B
1B
71
02
07
14
6D
75
7A
05
12
00
09
0E
6F
77
0B
0F
0C
18
72
03
18
1A
77
67
0E
66
74
16
16
06
20
77
18
14
76
78
00
7C
15
68
70
15
64
64
7F
76
6C
00
11
6F
05
13
04
0D
71
62
15
67
0D
6F
77
7F
1B
01
6E
03
6E
6F
7F
6B
79
0F
78
10
05
11
67
04
60
19
0C
69
19
00
0E
10
6D
0B
78
1B
12
15
21
06
7D
10
10
7C
12
7D
70
78
1A
09
7B
70
75
7F
16
73
6C
11
72
6C
12
01
0E
74
12
6A
78
7B
74
12
73
12
77
17
6F
6B
76
69
6C
0A
02
76
0B
7C
0B
76
0F
6B
7B
17
04
6F
76
67
12
11
0A
7E
6E
0D
79
14
7A
7D
14
00
09
6E
1A
0C
79
68
10
6C
0B
17
04
69
6A
10
1F
18
71
70
05
7E
11
65
17
11
09
6C
16
05
7E
65
1F
7C
14
7A
0D
05
0E
0B
6C
09
12
7B
05
09
11
00
7D
07
79
03
70
02
03
0C
76
1D
74
68
63
11
18
79
17
12
65
04
0F
0C
00
18
7A
7D
75
04
01
1A
72
0C
17
5F
76
62
70
67
11
6E
22
7C
7A
12
63
1D
6F
12
76
1A
0D
09
64
00
64
75
0B
70
77
06
6D
23
7A
13
07
0F
5C
65
69
79
08
12
1E
75
68
79
78
13
74
17
0C
76
6B
6B
74
6B
79
7E
18
03
05
7E
6D
6E
13
10
1F
08
75
17
13
7F
60
0D
1D
12
05
13
00
0F
78
6E
10
6F
1A
6C
61
68
79
78
7C
16
10
04
05
10
70
04
02
7F
7F
18
22
0D
7C
19
67
75
01
17
69
70
74
0E
0D
7A
19
0F
76
0B
7F
76
16
77
7B
76
76
69
05
6A
1B
73
7E
06
20
6A
6D
7D
7F
09
11
08
03
15
6A
17
78
07
08
7D
5C
65
7D
03
0B
0B
05
0B
7F
0C
7C
12
10
09
07
06
03
6E
73
7E
1F
02
0E
6C
0D
7C
02
01
1F
78
74
06
00
73
74
7D
0B
68
7C
7A
17
0F
16
70
05
10
0D
6C
25
20
7A
6D
0F
73
04
67
67
72
77
0D
13
0E
10
16
00
72
08
6F
68
11
67
65
07
0F
72
10
6C
13
74
77
74
7F
18
65
7A
73
0B
7D
6F
1A
14
6F
77
71
10
09
0C
7B
7B
03
7E
0F
00
7E
71
77
14
17
1C
08
1C
66
7E
5E
72
19
02
1A
78
13
66
0E
6F
69
07
7A
70
13
09
7C
16
13
17
70
00
09
68
14
73
7D
6D
05
09
18
7A
0E
6B
14
02
7F
5F
64
16
00
0A
76
1B
67
05
71
09
75
13
13
6B
0F
09
00
03
17
12
79
16
7B
6D
12
00
22
6F
0F
0F
7D
62
09
65
79
67
70
16
00
0C
73
00
01
7E
7A
0E
05
7A
11
0B
75
5B
6F
5B
16
05
06
26
1A
77
6A
79
70
03
78
6E
65
7E
6D
0B
01
15
04
1B
6B
22
67
78
5F
0B
10
7E
7E
18
72
7B
7B
6D
6F
21
72
7A
10
78
6C
07
0C
68
68
67
6C
05
75
16
71
08
01
7B
19
6E
79
67
76
74
78
0A
7D
18
6C
0F
11
6F
01
6F
02
7A
6B
63
65
09
16
06
66
04
14
08
78
01
12
12
6A
79
68
18
1D
17
05
68
06
07
18
0A
7C
0F
16
77
7E
7E
7A
11
0A
11
77
6F
05
72
10
73
13
6D
12
68
6B
08
0A
68
72
02
66
09
73
72
6A
7D
7F
7A
07
71
10
67
7F
66
1A
07
01
73
6A
77
70
7B
03
0A
0F
21
00
18
05
76
7E
0E
7A
6A
04
1A
07
79
64
13
01
6F
7A
1E
70
69
10
0B
6F
0D
14
00
64
18
0B
66
72
05
1D
12
09
7A
05
6F
16
04
05
0B
7F
5F
15
7B
6F
7C
6B
1D
79
07
0C
75
6A
7E
70
06
10
0F
0F
17
13
04
69
13
7A
7C
1F
73
06
74
69
14
0C
78
0E
0E
7E
05
0F
07
6D
09
7C
01
11
10
63
0E
10
0D
19
09
76
6E
6B
0D
0B
7F
0E
0F
73
70
1B
73
7D
18
6B
16
66
67
0D
76
20
64
67
75
6E
76
71
17
19
73
07
15
16
0D
62
18
0E
02
73
75
7A
05
06
1F
7C
7B
71
24
63
71
7B
10
0A
11
7D
67
7E
63
7B
06
6E
7E
15
62
15
7A
20
7A
79
75
74
06
07
5E
1B
60
16
76
75
03
6F
0F
7A
16
7B
06
00
72
75
7B
12
00
13
63
08
0C
6E
6A
7B
09
7B
14
08
73
6D
11
79
21
7B
6F
0A
1E
68
05
6E
09
65
0F
12
63
71
03
0D
76
0C
1B
74
74
6B
11
62
0F
79
70
04
00
7D
73
20
7B
6B
69
6C
17
6C
12
08
65
27
0F
6F
68
71
1C
7B
6D
73
6E
5A
15
7A
7E
05
09
5E
09
0E
66
04
75
01
10
76
15
04
10
67
05
6E
14
0F
01
16
63
0E
01
70
7F
08
71
78
67
05
18
20
6F
74
62
02
15
64
05
03
6C
75
7D
12
06
7E
09
79
14
76
10
17
10
0C
6D
78
68
76
68
74
02
77
6D
09
78
16
69
0E
10
74
18
7F
71
76
10
7C
00
62
1C
73
08
0C
11
69
14
0B
02
04
22
0F
7F
12
07
07
7F
13
09
04
6D
64
13
77
11
12
73
0C
1A
02
7D
6A
6F
76
70
21
18
72
04
19
06
7F
14
10
68
7B
08
14
76
16
11
14
64
1B
7B
71
0A
17
6E
7A
6C
6D
78
07
72
18
0C
73
7A
77
72
25
11
7C
16
72
02
64
77
03
65
0A
7E
79
6D
6F
70
75
15
75
0F
66
14
7C
65
71
74
05
0B
11
0A
03
08
04
18
0C
18
6A
67
11
68
74
7D
07
7E
0C
14
28
7F
0E
71
7A
6D
79
1D
05
73
12
0A
7F
69
74
73
17
6F
01
1F
7E
00
61
10
00
77
17
19
0D
13
66
0F
7A
68
6D
6F
0D
7E
0A
71
11
24
77
10
6E
71
03
13
07
02
0B
0F
0D
01
02
00
13
0D
15
76
78
07
19
01
09
0E
0A
19
6C
16
19
0A
77
65
12
7F
04
77
72
72
76
09
18
1D
7E
6F
15
7B
67
1A
14
0A
0F
11
7E
08
01
0D
0A
7F
0B
23
7E
72
7D
6C
75
06
79
61
12
19
65
7B
1A
03
77
07
00
05
7B
71
0E
7D
75
6B
69
03
0B
05
67
06
68
6C
6D
7E
65
6B
20
02
18
0D
79
74
01
7A
0C
16
18
6C
02
70
03
73
18
6D
0A
67
6A
72
6E
78
67
13
73
0B
05
70
03
1C
0D
7A
7D
07
7A
13
11
6C
0B
18
71
02
77
0E
05
16
77
65
6E
06
11
70
77
04
0F
0A
07
73
11
09
19
0D
7F
6B
68
77
1E
00
6D
06
79
7F
7C
01
19
15
0F
72
02
05
01
70
0F
6C
15
01
12
20
76
1E
67
00
0B
7B
1B
65
6A
6B
07
66
65
74
13
6F
7A
15
78
7B
02
7A
66
73
08
78
71
18
18
0B
73
07
12
65
78
05
68
06
7C
78
0D
6A
6E
10
6E
12
61
05
78
0E
09
11
78
17
15
17
78
0F
6B
6E
64
05
75
18
78
17
76
66
72
01
09
7B
01
6C
1A
0A
6E
73
09
03
1A
14
08
79
71
7C
08
06
0B
0A
1E
0F
7A
12
06
71
08
08
0D
7F
15
06
7D
7D
72
13
7E
16
7B
69
00
0C
13
0C
0B
7F
66
00
0E
0D
6C
7D
70
09
61
06
7C
7C
7F
0C
0B
67
7A
0C
0D
08
77
75
02
78
09
77
00
7E
06
0D
66
0B
69
15
02
11
0C
63
76
07
6B
7D
7C
06
68
76
78
1F
10
11
1A
7B
7F
6E
0E
14
71
72
7E
11
0B
00
66
06
13
6E
77
7B
0E
70
6E
10
69
6F
02
0D
63
15
7E
69
15
03
71
7B
76
7C
1B
67
6F
7A
73
15
77
6A
76
6E
7F
68
6B
08
6A
15
1F
6D
6D
7E
0C
72
6D
0C
62
76
72
12
6E
67
6E
73
18
78
72
61
12
78
1B
7F
6F
1F
17
7E
7C
75
66
16
12
0E
7D
73
1F
7E
69
7B
0C
6C
0C
10
0B
03
69
20
02
6A
72
0B
03
69
69
15
71
6C
74
74
73
7F
0A
00
7E
16
79
78
01
05
72
76
0E
7C
6F
6F
17
67
15
03
6C
17
7B
13
5E
20
18
06
0D
77
7A
10
7D
7D
73
0F
79
15
17
6F
65
11
59
10
6D
58
6D
18
7D
14
0E
75
0E
64
72
06
12
17
7E
15
11
16
09
10
71
1C
10
29
0F
6C
18
74
08
7E
6C
1B
08
02
71
0A
09
11
15
01
0B
01
0E
57
1E
15
20
7C
14
1C
78
5C
72
06
55
6E
14
02
52
6C
0C
0F
01
0C
69
71
6F
65
0A
7E
5A
26
06
77
01
17
29
74
78
17
6B
16
65
54
71
19
0B
70
6E
01
78
78
0E
76
01
01
6B
11
7B
0F
03
0B
79
77
75
75
6A
79
73
0F
05
0C
03
7F
23
19
65
7B
76
6E
68
1A
6F
13
7E
73
75
5A
74
64
75
2F
08
10
78
11
68
0B
69
17
7D
1B
11
07
71
68
02
1C
0E
1F
69
11
17
72
70
65
12
08
15
6F
5A
76
75
11
78
71
10
07
70
65
09
04
2D
14
7E
09
16
7B
73
08
6A
63
76
72
75
11
67
04
10
1A
0E
7D
7B
02
17
6C
7B
04
63
21
1A
7F
0E
05
2C
7B
0F
1C
6F
76
7D
6C
74
07
14
6F
70
06
09
79
66
6F
64
72
6B
21
17
19
17
7B
6F
04
18
6C
11
76
78
76
67
0B
63
7A
74
20
72
14
5C
6C
79
02
7E
17
6B
64
56
0A
68
60
66
24
09
03
14
6D
7A
73
0A
69
77
21
06
06
12
16
16
06
0E
18
76
0A
7E
13
0E
08
05
68
15
17
68
13
68
76
6B
75
63
14
0A
78
0B
62
7F
14
10
11
1C
7D
01
77
7E
65
06
62
6E
6A
07
08
1E
68
08
1D
12
61
03
06
70
74
64
11
7C
66
67
1A
0A
0D
77
1F
73
72
68
6B
18
6F
17
67
79
70
05
7B
79
67
74
00
7E
02
04
79
06
6C
6D
02
73
6C
7D
62
69
73
79
24
00
7F
02
19
0F
69
6D
06
7D
00
72
02
70
71
15
12
7B
64
19
1C
7C
20
0B
6A
78
74
74
0D
04
05
79
0C
05
07
21
1B
78
65
0A
7E
13
64
17
10
73
72
66
72
0B
0F
14
04
05
00
78
7D
71
7C
73
78
68
7A
24
79
71
71
69
73
17
03
70
0F
0C
10
14
75
22
5F
06
02
7C
01
19
07
63
05
13
7C
6E
04
0A
0B
64
1B
6C
20
7C
0E
6C
18
16
02
0A
14
03
6F
1A
11
10
7E
0B
04
05
6D
06
24
11
5D
0E
28
65
01
10
64
7F
6D
6A
0B
15
6C
67
02
73
6C
10
0A
00
71
01
67
19
67
77
66
06
0C
00
17
0D
73
7F
7A
08
6D
00
04
19
1A
72
12
74
73
71
15
1A
6F
1F
69
6C
16
71
13
16
69
76
0F
01
1B
15
1E
64
0C
14
23
01
01
12
7D
06
0C
7F
0D
02
19
0E
75
69
0B
6D
78
14
16
1C
1A
76
0C
10
15
73
66
13
0A
69
65
1A
14
65
15
68
7D
10
26
68
7E
0D
73
13
18
7D
75
7E
7A
7D
79
73
16
0E
10
1B
64
24
0A
68
20
73
04
7C
14
16
0E
13
62
77
6E
6C
1D
7A
65
71
09
6D
65
73
78
64
08
7A
7C
6A
71
18
6A
0D
18
16
0E
0C
61
16
0D
1F
0A
19
7A
73
75
12
06
0D
71
17
68
16
0C
76
13
77
6D
72
6A
78
71
75
08
11
06
18
11
04
0D
71
6D
6C
12
79
5E
68
6A
6D
6B
6C
6D
16
78
15
71
09
6D
14
69
75
73
0F
16
09
77
14
09
69
14
14
08
12
20
19
6F
7A
19
72
1E
16
18
70
65
10
76
02
06
0F
65
17
0A
78
7D
0D
19
6E
0F
1A
1B
75
73
03
75
0C
70
0D
7A
09
07
7D
69
6C
07
0B
1A
78
7E
72
7E
77
17
0A
79
0D
67
7A
7E
6F
04
0D
0F
11
03
67
6C
09
6F
77
77
7C
07
7F
1B
62
7B
75
02
0D
72
0B
16
7F
73
0B
17
6D
6A
6C
0D
70
08
67
6F
06
18
05
6A
13
0D
05
13
6B
6D
1A
0A
17
16
0D
70
17
75
0F
69
15
6D
05
0E
15
73
07
77
12
11
6F
08
6A
7B
62
0D
72
77
0C
69
19
0C
6D
7F
19
1D
63
6F
78
1A
66
07
75
6B
14
1C
7F
70
70
64
6B
78
13
6F
1A
05
6F
6C
04
7F
7A
78
73
12
0D
0E
76
00
11
0A
73
7B
74
11
6C
1C
07
15
6C
03
6B
74
71
66
03
7E
72
23
0E
15
78
01
68
74
74
14
6B
0A
75
14
12
0B
12
11
0C
18
18
7E
03
13
66
7A
07
0A
7A
76
76
12
7A
05
65
77
7A
16
67
13
01
0D
77
0C
04
0E
06
13
08
15
18
10
0C
17
77
01
7E
6A
0F
6E
73
1F
6F
74
6B
0F
11
01
1A
23
72
09
66
10
17
12
14
7A
0C
05
03
01
0B
79
10
0B
7F
0B
71
04
7D
6E
0F
14
1C
16
78
0B
15
77
68
78
15
12
04
70
7E
78
7E
12
07
12
18
02
12
14
0E
0F
73
09
71
06
01
70
09
68
72
73
7B
09
75
6B
67
77
7F
06
65
66
6B
0A
08
07
0F
66
76
6E
1A
18
07
1E
0B
05
6A
68
7F
6A
01
75
5F
0F
02
09
64
64
0F
1F
1C
11
79
09
05
03
72
0B
7D
13
13
0A
17
68
0E
0E
7E
66
0D
19
7E
77
0A
78
7C
7B
7E
09
01
79
0F
00
71
6E
06
07
7C
6A
7E
70
17
09
6C
03
68
1A
12
65
05
7D
11
0E
72
02
12
7E
6E
0F
14
73
76
00
64
7E
7C
64
66
13
6B
61
02
02
05
16
6B
72
6E
01
09
0F
0B
00
12
02
16
63
03
78
6A
62
65
1D
79
69
19
73
21
70
02
08
05
77
07
7E
19
02
10
02
70
13
7C
1C
03
72
6F
7D
09
78
67
07
0E
0C
75
72
7B
12
0F
1D
0D
0D
79
6D
09
17
05
00
09
11
13
76
06
09
07
08
0F
13
0B
0A
02
63
03
05
06
6A
18
7F
7A
67
0F
02
66
04
77
6B
00
6A
6D
74
7C
7F
7B
10
75
6E
06
6E
69
09
79
72
7F
7E
17
02
0C
0C
77
02
07
0D
71
13
63
09
64
7D
02
7E
7C
26
6B
68
74
0F
78
6A
65
6C
7B
76
72
65
70
75
0F
70
70
77
03
7C
66
72
03
7D
03
0E
74
14
69
74
02
77
03
14
07
78
6C
09
05
14
06
07
6C
69
0C
09
74
04
6E
76
06
13
6A
0A
74
78
6C
05
20
0E
14
7F
09
79
6B
14
05
78
17
12
73
68
0E
09
17
68
00
6E
0A
7B
02
6F
6C
13
13
70
7D
25
74
70
0B
02
17
14
02
01
6A
6C
7E
17
70
78
64
7A
06
1A
16
7E
08
0A
18
18
00
19
76
7D
72
79
79
18
7C
64
64
0D
1A
02
7B
75
7A
79
1D
60
76
76
7F
68
79
65
07
6E
01
05
15
06
6B
69
64
79
10
75
6F
00
06
13
74
66
0C
0E
07
22
02
72
10
7F
17
6F
6D
08
7F
0B
6D
7D
02
7A
72
21
01
1A
66
1E
0F
00
0F
13
72
0E
78
6A
04
62
78
03
79
6D
0A
6C
08
78
79
6A
15
65
02
7A
0F
70
71
72
0A
7C
12
03
71
6F
18
17
11
63
73
06
7E
0F
65
78
6B
0F
0D
64
7D
08
68
6F
7E
0A
0B
6C
67
7D
7C
7C
79
19
79
03
0D
7F
6F
03
6A
65
0A
7D
09
7D
6B
24
0A
05
0B
5C
0F
18
74
73
0A
75
17
7A
68
7D
07
01
65
07
08
73
6D
6C
67
76
79
71
00
69
14
7E
09
72
06
15
15
03
0E
17
64
7B
13
64
15
18
67
16
0D
1D
05
1A
0D
24
66
7C
7F
76
19
7D
7D
69
0C
05
63
7B
68
1B
6E
03
7A
16
1A
1A
12
7F
0B
77
76
78
66
66
7F
70
69
11
6F
0E
70
24
08
12
7B
7B
74
7F
78
71
0E
0D
7D
1B
71
07
74
7E
7D
02
07
00
0D
6F
15
72
71
11
13
22
72
02
0E
7A
7E
7D
6A
65
74
5C
7E
7A
70
6F
06
79
03
0C
72
6B
08
19
7A
7D
73
62
15
0B
07
0E
69
22
78
09
7B
77
12
07
6A
76
09
09
14
0A
14
10
06
04
02
0F
6F
6C
74
6C
17
04
1B
7D
04
1A
0E
7A
00
15
70
09
12
7C
1B
65
0F
03
70
72
74
13
69
09
16
64
6B
69
25
1C
68
05
7B
04
69
71
00
05
6D
71
02
72
61
68
14
7D
18
66
71
6A
7E
15
65
6E
03
04
70
72
04
18
05
7A
74
07
09
07
75
08
21
1B
16
04
15
13
78
1F
69
20
0E
77
02
75
13
75
73
02
15
7B
17
0D
72
05
15
7F
6E
7D
67
19
6A
78
14
64
06
0E
03
7F
69
09
6A
75
7F
6A
7D
7D
09
0A
61
1C
09
79
6A
73
14
7B
06
15
6A
76
7A
06
6B
11
7C
27
76
09
64
04
7C
79
77
20
0F
79
7C
02
63
7E
6E
07
68
72
77
00
6B
0C
14
0E
72
62
02
17
71
6D
15
61
18
0C
68
7D
01
73
14
76
65
0F
72
6C
09
72
11
07
0C
08
6F
16
16
19
65
6B
0D
05
1C
16
07
05
7B
0F
70
64
03
1C
79
6E
02
02
6B
15
13
74
7B
5F
76
0C
76
78
78
71
74
12
6A
67
78
76
02
75
0E
7A
7C
74
68
78
0A
7B
65
6E
6B
75
16
73
6D
09
77
03
0F
1B
73
6F
5E
77
64
0E
12
20
10
6A
02
72
7A
7F
76
23
79
76
7D
09
0A
17
6C
71
7A
76
0C
14
20
16
03
02
76
16
0C
65
07
6D
11
06
02
0A
5F
0F
04
75
04
0A
72
6A
16
1A
7E
11
79
6C
0F
61
06
71
16
6E
18
72
09
13
7D
05
1B
65
10
00
0C
0F
0F
13
14
18
60
78
6B
74
6E
6C
23
09
05
7E
16
79
04
76
7D
7F
69
1C
75
18
78
78
07
6A
6D
06
64
7C
0B
7F
66
14
11
0B
16
06
66
19
66
1A
67
1B
07
16
17
6E
01
7E
68
05
6A
7B
6F
7D
0F
0D
74
12
1F
77
69
64
71
00
73
0A
0B
13
74
10
02
12
68
7A
0A
79
1A
23
19
12
04
6B
06
6B
01
74
7A
6D
6B
6D
01
75
0C
0D
73
1D
02
7D
11
76
07
72
17
16
0C
0A
7E
1E
74
6C
76
79
0B
6E
19
69
18
71
7D
01
0C
6B
13
64
04
65
7B
79
0D
7E
0A
7C
11
06
0B
76
7F
06
67
7B
16
25
0E
0A
7B
0A
73
6C
12
75
72
6F
02
62
71
07
0A
6D
6B
13
68
74
6D
67
06
66
72
1C
70
6C
04
74
70
68
7B
00
07
6F
6C
75
08
0B
09
17
6A
71
1B
0B
03
6C
72
12
68
00
77
0B
02
65
01
12
17
7F
1E
17
67
01
1D
06
6D
79
01
7D
18
01
02
0A
68
6F
68
6E
7B
65
72
70
6B
73
65
22
16
16
78
06
67
00
19
05
19
6F
6D
6C
16
03
0F
0A
70
08
05
06
62
0F
0E
0E
71
68
6B
6F
17
12
0C
71
1A
01
79
25
00
7B
6A
13
75
6F
75
13
7F
71
15
02
0B
0F
16
6E
05
7D
13
73
73
00
75
13
69
09
6F
71
75
79
18
0D
66
0C
71
70
15
64
01
68
7D
6B
09
65
7D
78
13
0D
6E
01
0C
65
0A
13
01
74
14
6A
75
6D
67
78
0F
79
0B
79
1F
0F
14
1A
22
21
7C
6D
6B
7B
0E
0A
05
03
68
7B
6D
6A
11
76
20
06
7A
78
72
0E
65
09
16
7E
0A
13
04
6B
75
13
72
64
77
01
7B
0A
70
19
12
76
18
63
12
06
0F
7C
65
08
79
65
02
14
06
6E
1D
02
14
61
67
78
72
00
7E
10
0F
76
76
72
7B
1C
1A
67
02
08
02
0E
06
0D
65
02
0F
12
7B
76
0D
04
76
1D
6E
6D
10
79
6C
03
05
14
15
0C
12
6B
1A
67
15
1B
69
24
0D
17
08
11
19
6E
00
0F
7F
7E
5F
64
18
77
6E
14
0D
09
18
68
12
1C
79
71
14
25
71
0F
68
6F
78
73
65
6B
71
65
7B
7F
71
1E
67
71
67
7D
1F
0E
08
0A
7A
64
0B
70
03
05
16
02
06
0E
6F
59
73
16
0E
6D
10
10
0A
71
18
09
69
6C
6B
1D
0E
10
0C
01
02
7C
0C
1D
0C
14
5C
21
71
0E
62
78
1F
7E
10
15
5D
5A
73
69
73
17
67
04
6F
66
68
5C
0F
03
0E
29
67
67
0B
7C
73
64
65
01
6E
78
03
76
17
77
13
12
0D
2F
6D
64
03
64
76
77
18
18
7C
65
7D
0D
10
6A
09
05
16
0A
7C
7D
20
22
75
63
24
24
75
76
6E
0E
6B
7D
00
74
60
65
02
04
02
03
04
6E
18
05
6E
74
6A
19
1A
62
01
09
27
0A
68
1D
6C
7D
0F
5A
15
70
06
0A
10
26
13
0D
08
19
52
1C
73
2B
13
05
10
71
67
01
70
0C
71
64
58
76
05
08
64
73
1D
04
6F
02
75
09
7E
7E
6B
6F
0C
6F
7C
61
66
76
10
05
66
03
65
05
06
0A
11
6E
0A
0C
04
79
79
11
0A
1A
03
28
1D
2C
11
05
6B
07
0E
02
66
05
55
6B
6A
72
0D
79
03
23
0E
77
75
02
26
1A
13
0C
7A
0B
08
7D
10
0C
79
64
6D
0E
5A
09
0A
0F
07
19
13
74
7C
75
71
05
0C
0D
67
74
0A
72
23
16
1A
7D
06
7B
00
6A
01
0B
67
74
6F
17
27
79
72
04
59
06
6A
24
00
29
23
58
0E
63
74
02
78
0C
7A
67
77
0A
7D
73
19
09
18
0B
57
13
7F
73
04
0D
14
03
09
61
6C
5B
63
27
7D
14
0B
0C
0C
0C
6F
76
73
7B
6E
01
09
72
7B
71
72
74
0E
63
13
69
01
14
18
00
08
07
62
0D
0D
78
6F
6D
07
26
69
7F
05
05
5E
78
12
79
16
20
07
7A
04
07
1D
00
04
78
1E
0A
08
7A
7A
7B
0D
7A
13
74
01
01
1C
13
65
74
6A
18
7C
01
76
04
02
75
63
78
75
09
0F
0E
7F
7A
7E
04
66
13
1B
08
26
0D
7B
7C
1B
6D
78
06
11
66
69
62
20
58
76
21
75
69
77
7C
0A
68
0E
27
75
6D
1D
7F
09
70
73
09
7B
1E
11
10
0D
5A
64
04
65
6D
67
0C
0D
19
79
11
29
74
0D
6F
0D
65
05
61
0D
0E
03
7F
16
68
66
5F
6C
13
06
0E
7F
73
77
14
6B
01
05
62
7E
68
79
6C
6F
0B
13
1A
77
19
1F
60
18
72
2A
1B
72
6C
7D
77
73
68
7B
6A
77
14
26
22
71
0E
6B
13
7C
20
15
7B
0E
15
01
0F
73
72
03
62
77
7E
13
7E
73
0F
0C
17
0D
0F
7C
1A
7A
09
15
1A
07
6C
63
71
7B
64
6C
08
00
68
6F
68
0E
75
06
04
7C
02
7F
65
13
03
1A
12
0A
7D
14
0A
0F
5E
6D
13
18
7B
01
16
79
7C
00
0C
06
69
6D
08
71
0B
21
0C
10
76
72
06
17
19
7F
01
69
11
1B
0D
71
72
08
7F
61
6A
22
6F
09
0B
08
11
16
64
04
78
75
64
1A
07
04
10
27
76
07
73
74
06
75
61
68
67
6F
14
21
07
14
0C
74
6D
0E
07
7F
75
09
0C
01
23
77
1A
73
09
0E
0C
6D
6E
0E
16
09
7D
78
17
7B
1D
03
5E
74
26
62
79
17
66
0F
79
0F
24
66
0F
5D
65
0F
08
78
0F
0A
79
79
66
04
09
1E
75
7F
65
01
08
77
68
6F
18
78
73
09
77
7B
76
6E
08
11
73
65
00
7C
7C
0C
6D
13
69
13
05
6E
14
08
7F
7E
12
6B
17
66
00
10
0F
01
65
0E
14
6E
00
0A
0E
75
1B
6D
7C
05
0B
11
6E
77
03
08
18
0A
67
1A
75
77
7F
6A
73
03
07
0D
6F
14
64
64
7E
7A
20
68
1F
01
09
14
0F
02
09
74
6F
16
06
68
79
05
66
6C
04
22
6F
04
07
79
7B
03
1C
04
15
17
64
11
76
73
04
71
75
6C
05
73
0F
7A
7C
75
66
1B
71
6C
7E
76
7F
0E
7E
6F
22
04
6A
01
7D
77
6F
71
69
0E
16
65
73
76
6F
0C
6C
70
6A
1B
06
15
03
77
17
02
67
00
0F
09
6E
6F
07
7E
11
70
08
0C
02
17
6C
11
15
6F
10
74
09
79
6C
79
6B
17
0F
0B
16
76
0A
1D
0A
6F
79
07
60
02
0A
63
08
1B
0E
06
7C
70
75
6B
01
6A
01
12
7B
10
6A
78
7B
6D
64
76
07
19
7E
0A
16
1A
78
15
6B
78
73
08
62
0A
7C
69
64
08
7A
15
7E
71
0B
72
73
64
09
71
0D
62
77
77
04
74
78
11
73
77
7D
79
16
03
23
76
13
69
6C
72
73
65
74
7D
08
0C
75
0E
7B
76
70
17
0A
0C
02
02
10
7F
74
73
0D
0B
06
75
74
15
11
66
04
63
01
66
6D
6B
75
7B
03
69
67
0E
6B
16
0E
0D
14
6B
6B
7F
01
03
7A
14
00
08
6E
64
0C
79
08
01
64
09
15
70
10
7E
00
76
1E
77
09
66
06
6B
00
0A
74
7F
68
14
1A
00
16
12
1A
73
09
14
06
7F
1A
07
16
0F
0B
72
65
13
16
13
0B
76
1E
01
6F
6F
6E
13
7E
0F
73
13
05
00
7D
66
76
02
04
77
02
01
76
1B
69
66
7A
70
07
6C
6C
76
7F
76
7D
7D
14
07
7C
09
16
0F
19
78
7F
18
77
7F
12
13
07
61
04
0B
22
71
68
10
08
75
6C
75
00
71
62
7D
19
72
71
7A
72
02
0B
6A
71
7C
6E
6E
08
75
6A
6C
7D
13
01
65
72
69
6B
71
06
16
7A
64
04
01
09
11
0C
04
79
15
0D
71
66
75
0D
11
77
6B
7C
02
6F
70
0C
15
01
73
23
6D
13
7B
75
6E
7F
72
04
7F
79
6F
08
69
14
7A
0B
67
68
74
0A
1A
67
18
76
7B
7D
0F
6A
65
6E
6F
79
76
0C
67
11
79
12
6B
75
78
11
70
21
77
6A
71
7F
0C
79
7A
69
66
18
0D
0C
0D
64
75
1F
78
70
0E
12
09
12
6D
1E
75
66
08
70
06
17
13
08
05
11
7E
67
11
15
68
7A
6D
63
72
09
1D
13
79
76
78
06
70
05
77
18
14
0B
7D
7D
6C
1A
17
08
68
0E
01
6B
17
06
0E
09
05
07
0A
07
18
75
63
6C
12
72
23
09
7E
7A
7C
6E
14
15
65
6A
13
07
7D
06
67
74
16
68
7C
65
01
12
0A
13
65
7F
69
69
00
09
0D
69
6E
0F
07
16
1A
70
64
04
13
7C
0E
74
7F
0F
0F
6E
07
0C
63
06
10
09
17
0B
10
77
6F
12
71
14
10
14
11
0F
66
0F
0F
01
7F
12
75
7F
6A
0F
6E
79
0D
0D
6D
75
72
7C
74
71
01
75
18
75
08
19
03
7F
79
6F
15
68
7C
64
06
6E
67
04
73
6D
70
7B
6B
11
0D
71
66
78
77
73
0C
01
6C
10
6D
6D
15
0F
16
6A
7F
13
08
6E
0E
24
71
19
1A
6A
7D
67
0A
70
18
79
06
74
16
0C
7A
5D
7B
16
10
0E
7A
1B
7A
6A
7A
7A
00
7C
0D
0B
65
00
04
7B
10
0D
12
7F
76
15
77
1B
05
07
76
66
7E
22
10
6D
02
13
6A
62
6D
73
09
79
66
02
62
00
62
0F
73
0B
76
16
12
06
15
0A
09
08
7F
75
7F
14
79
62
0B
7E
6C
06
7A
76
75
18
07
72
76
6E
00
5E
04
7B
7F
68
09
0B
71
72
16
7C
73
68
69
7F
65
17
09
7E
09
77
65
07
6E
00
6E
69
68
00
08
04
0E
69
6D
23
7C
7F
72
1A
09
07
12
09
0C
12
67
1A
18
11
01
08
0B
18
09
62
72
11
14
0E
73
73
1D
6D
7E
0D
6F
0D
0D
6F
13
65
15
17
7A
03
6C
14
05
1B
0F
7B
61
1D
79
10
00
7E
11
74
6D
6E
6F
0E
08
78
6A
17
00
15
7B
6C
13
1D
70
66
11
62
12
0F
79
11
6E
03
05
12
17
68
6F
6C
64
73
1C
14
78
6C
7C
72
0C
5D
06
02
68
68
17
21
0D
0E
15
66
79
68
66
7F
16
16
74
7D
75
7D
0F
7A
6A
63
1B
0E
79
00
71
7B
07
79
7C
09
76
7E
12
1F
12
60
07
7C
10
7E
78
16
6C
6D
01
73
65
68
08
7B
17
07
6A
7B
7C
5F
77
71
6B
66
70
13
0D
11
70
0B
01
76
79
02
6C
7D
7A
1C
72
68
05
27
7D
0C
64
6B
61
0E
73
6B
79
67
0F
14
78
1F
18
0E
06
0E
73
08
19
08
0C
0D
67
10
0A
10
12
0A
70
7B
64
7A
21
0C
00
7D
15
6E
67
10
6E
67
76
7D
69
7A
6B
79
1A
7A
0E
6A
13
71
19
04
77
05
02
64
06
15
6D
65
06
10
7B
7A
7B
67
05
78
1D
77
08
7F
6F
1E
72
06
16
72
0E
0D
7A
14
1F
04
03
7F
72
0A
0A
6E
11
64
6D
77
77
69
14
79
7F
60
17
78
11
10
6A
6E
13
74
10
7E
0F
7E
66
7D
6C
12
75
13
6B
0F
75
75
14
06
71
7D
00
15
07
68
05
04
0F
7B
7B
0D
10
1A
05
6A
08
22
6D
0A
6F
14
11
76
05
65
73
7D
77
08
74
17
18
77
04
69
1B
04
74
72
03
7A
19
13
13
73
12
00
0A
7D
7F
1B
13
18
01
6E
0A
64
64
76
6B
09
76
02
14
05
77
7F
7A
6F
63
18
1B
07
17
08
12
71
7B
7D
70
75
0E
65
12
76
1D
7F
10
19
78
7F
03
6A
1B
0A
13
6C
09
05
71
7B
16
65
72
09
6E
12
01
77
04
67
69
71
12
75
15
0C
03
06
05
03
03
68
77
7E
79
77
78
74
7C
06
05
12
70
0C
6F
28
7A
70
0C
0F
21
6E
7C
0D
12
04
0E
1A
12
1C
04
18
6F
01
10
7A
04
65
73
29
66
17
05
0A
02
01
68
0B
6F
1B
18
78
1D
1A
09
17
66
79
00
73
6E
77
7C
5C
16
0C
12
03
6F
78
6B
72
0F
01
7E
75
79
15
60
20
6C
0D
67
7A
70
22
66
73
14
75
65
7B
09
00
08
05
72
7C
0A
19
15
11
7F
05
07
09
13
7F
6A
1A
64
17
77
71
7A
10
7D
1F
73
10
7D
02
6A
70
01
16
18
17
0F
72
0A
7D
70
70
72
6C
17
74
05
6C
0C
0F
15
76
71
16
04
78
7F
13
0E
0D
2D
76
6B
28
19
1A
5C
0B
7A
05
14
1E
77
7B
70
73
16
73
69
78
6B
72
70
00
7D
73
6A
65
23
70
7B
04
66
1F
75
67
7F
5B
18
76
15
76
72
74
71
71
19
7D
0D
7E
76
6B
0F
7E
0B
0E
0E
70
0F
09
02
7A
14
61
66
18
6E
1D
03
76
69
73
1F
0D
79
7B
18
09
1F
64
17
6E
10
0C
00
27
67
0F
65
74
16
64
76
1A
68
7B
09
0C
74
00
11
0F
76
6F
5B
1A
15
0A
61
05
0A
6D
72
0B
65
76
6F
6E
69
17
75
12
0A
66
09
67
6D
78
08
06
0B
2A
0A
07
7E
05
03
71
70
1A
11
04
62
0A
6B
72
03
74
05
70
06
70
75
27
06
7E
27
05
12
5D
1A
1C
07
78
19
71
00
0C
65
63
72
0D
15
0C
69
0B
03
0D
10
19
0D
64
67
7A
03
07
79
0B
11
7E
73
68
64
01
0F
73
0C
04
6E
74
02
07
1A
1E
6B
7E
26
6B
02
00
75
7A
78
18
64
76
76
70
07
67
0F
17
72
15
02
7A
13
06
04
13
7F
70
7B
0E
12
02
5C
6B
7E
7D
72
7A
05
6C
6C
05
0E
74
75
09
19
65
18
6D
7E
63
6E
75
0E
02
13
0E
07
02
73
15
70
71
16
64
75
7F
05
15
6F
05
20
19
0F
0E
17
7A
19
14
1D
6D
73
7B
06
03
10
11
05
7A
09
0D
0B
08
79
7F
7F
10
67
0D
75
07
05
66
08
15
6E
77
74
68
6D
08
0D
1A
19
6F
6A
05
15
1C
61
73
0C
0B
7F
01
02
71
72
14
17
16
6F
7C
06
68
7E
71
67
19
6B
63
16
0E
6E
7F
01
18
01
0E
6D
6B
19
73
0D
76
5D
6D
1D
04
0D
0F
74
78
07
79
07
77
66
17
17
0E
7A
70
04
09
10
7E
05
12
0F
67
0B
60
24
76
01
0E
11
07
00
79
0A
77
5F
12
65
6E
5B
0A
1A
76
01
07
68
03
77
66
74
0B
06
05
73
5E
72
10
79
64
65
0D
0D
0B
0E
59
0C
09
73
64
7F
0D
0E
02
70
13
70
77
6E
1D
69
07
77
04
67
72
14
14
79
07
5A
7D
65
70
77
04
07
76
72
06
77
00
7B
7A
7B
75
76
70
67
7C
0F
6E
0A
1E
76
08
02
0A
77
66
06
63
75
0C
0D
7E
7D
68
0F
13
76
2B
0B
15
0F
04
6A
12
07
15
11
07
55
6A
6E
6C
60
12
63
7A
7E
07
1A
5D
2F
7B
10
6F
25
7F
66
08
64
68
64
72
70
69
65
0E
2C
7E
7B
10
17
72
68
12
12
65
66
09
0E
6C
71
10
1E
6B
12
10
70
68
0C
56
13
0F
70
79
6B
08
1D
6F
02
16
68
17
62
23
6F
25
23
74
1B
75
74
05
66
7D
07
1B
0F
7B
07
7C
78
06
0D
74
61
65
08
6F
7A
6D
0B
68
7B
09
0D
78
68
15
77
1F
78
7A
74
78
06
7B
09
08
6D
13
1D
6F
0E
1E
16
17
0E
0D
74
72
01
7E
7E
7B
0F
0F
58
61
70
20
76
02
74
0B
0A
6F
6C
76
18
67
10
10
09
30
6A
79
67
15
5F
6B
17
7C
07
03
2E
03
14
1C
0B
60
0A
7E
5A
19
5B
0A
6B
7C
78
72
1E
26
77
0F
74
7E
7D
71
0C
10
16
75
75
17
06
6D
0D
6C
70
03
6D
10
19
7A
79
77
73
17
70
64
6C
68
72
62
79
15
74
77
7F
16
69
68
7A
22
0A
14
7C
73
72
59
6F
08
0F
02
16
27
72
0E
6E
19
0D
0D
79
17
6F
28
67
75
13
7D
2D
66
77
64
08
5B
05
15
08
75
17
71
76
7B
67
76
06
7A
02
13
68
1D
51
74
12
6A
08
62
0D
0D
6A
66
65
7D
12
7F
20
6D
74
76
23
10
16
6B
73
02
01
6F
12
6A
63
05
12
06
6B
6A
07
78
63
13
0A
26
73
70
0D
0F
12
64
77
0B
15
17
0E
7E
6C
6C
28
15
09
6D
0D
0F
74
00
7F
0F
07
5C
0A
6C
05
01
66
2E
10
08
7C
7D
10
0D
72
0E
6A
11
29
11
12
5E
28
7C
10
22
65
03
07
72
0D
7E
76
17
6E
15
19
03
12
20
11
0C
70
62
15
70
28
5F
78
17
19
7C
78
09
6E
58
75
71
17
21
68
11
03
06
77
69
14
78
52
03
0C
7A
74
5C
6D
0F
70
12
28
7B
6C
65
25
77
0C
7E
0C
63
6E
7B
12
65
55
73
14
7B
6F
10
0F
17
78
1A
66
70
72
6C
07
27
0C
1A
62
74
1A
1C
22
0C
13
7A
29
07
1E
07
79
21
68
7A
67
31
10
63
65
70
2D
5E
6B
1A
7D
6D
05
71
7E
13
7C
24
6A
11
1B
64
00
71
29
0A
64
12
73
68
0C
72
00
0F
0C
08
0B
7C
76
25
0F
24
07
6D
0C
62
78
17
6C
06
13
16
19
66
0A
11
19
74
06
1B
10
28
5F
0C
16
7F
60
17
11
15
61
0B
1D
01
11
0F
7F
0A
0B
0C
1D
7D
66
79
21
7E
0A
60
6F
13
14
00
0B
69
7A
19
0F
0B
07
76
16
6F
6D
78
7F
7C
00
79
63
24
0D
09
12
0B
0C
01
1C
70
08
6A
15
11
09
70
02
0C
10
71
6B
10
0A
04
14
0B
0B
7F
08
7E
63
6F
0E
61
77
08
11
29
0F
0D
76
63
02
7B
22
05
17
08
15
03
6C
5E
15
76
0D
14
0E
06
6B
15
11
13
06
09
16
68
72
68
12
15
0B
00
74
7E
0E
00
0E
78
6B
14
65
1A
5F
6A
6B
02
75
07
0D
76
0A
72
1B
14
17
06
6E
07
07
12
73
65
7F
62
15
75
7E
65
6B
7B
6D
0B
72
6B
0A
67
70
1A
67
10
6E
12
66
08
73
10
68
7F
66
08
15
74
0E
76
19
17
7B
6D
65
73
10
7D
6E
1A
7F
71
0E
6C
7E
79
6E
61
10
0D
10
6A
17
1D
14
75
02
04
02
0E
01
76
7D
01
0A
6F
6A
70
01
0B
68
0F
6D
06
07
0C
78
0E
15
7A
68
7D
06
0E
69
77
0D
6E
18
1C
6E
16
07
08
6F
11
12
14
6D
0A
00
79
6D
13
14
20
12
13
03
6D
15
69
05
68
6D
16
10
00
13
17
7B
75
7E
03
07
6C
1A
7C
74
00
79
76
74
0B
12
78
0A
0C
6F
69
00
0A
7F
73
7C
7B
6C
04
6B
0B
02
6A
6D
6F
6C
6A
7B
01
18
0C
70
0C
77
7E
7D
0D
77
09
07
12
7A
04
70
1A
6C
6F
16
16
13
7D
0E
75
73
72
06
62
0A
75
04
6E
70
13
08
02
74
0D
03
18
0D
12
7E
1A
06
14
7C
6A
0A
6B
04
67
08
00
03
05
01
06
6C
02
0D
0A
14
71
10
68
0F
02
12
02
16
0E
04
0B
68
0E
0A
09
6B
22
17
77
7A
67
67
61
0D
7D
0D
78
6C
0B
77
66
1E
12
7B
79
0F
73
6A
08
09
75
68
7F
0E
00
68
07
1A
00
14
79
06
78
13
06
75
1B
67
73
0F
15
7C
6F
09
16
77
79
08
7A
72
00
0D
1D
78
7B
70
1D
1C
69
7D
15
02
7C
11
6B
7C
6B
19
22
7C
6C
04
68
0E
7A
7F
6D
0B
77
07
6D
7D
11
1C
65
0F
10
79
7F
74
68
7C
73
14
64
6D
09
7A
75
7B
72
0A
73
04
6E
06
7E
09
1B
62
66
03
7D
7F
66
75
0B
08
0A
72
0F
0F
6D
70
77
04
08
0E
62
0B
7A
6A
6D
0C
09
73
6D
72
6B
1D
05
08
65
17
11
6A
07
03
72
6E
75
78
69
6B
05
03
7C
07
0C
7E
18
09
07
19
01
15
7B
75
0E
66
0A
18
0F
65
0F
7D
00
6D
14
1E
1F
72
6E
04
10
76
7E
75
77
68
7C
64
64
1B
01
12
77
78
78
76
0C
0A
79
12
13
14
77
71
79
64
11
21
13
7F
67
0F
21
0D
68
6D
7E
21
04
10
02
08
0C
77
1B
7D
78
71
20
6C
0A
71
6E
0F
6B
6A
68
6D
76
06
16
7E
0B
04
0A
7D
7E
16
7A
7A
11
13
7F
18
11
10
0A
01
0F
66
14
7A
0D
7F
7E
72
0A
03
11
78
0A
13
05
75
00
65
12
68
09
09
1B
77
05
77
7E
75
78
7D
1C
6E
7E
06
11
6B
01
12
09
6C
78
14
0D
04
6B
77
14
7B
68
17
19
6B
6D
04
74
73
0E
09
6A
15
75
79
0F
14
04
19
68
01
77
02
0A
0D
6C
78
11
66
63
02
65
05
08
74
0C
71
0B
18
7C
76
67
68
7A
12
0B
00
05
06
6A
14
1B
0A
05
10
0E
74
00
03
0E
7B
6C
73
22
00
1C
03
75
65
66
04
12
7D
04
1B
79
6E
66
13
76
6E
02
15
7D
7D
0A
0F
11
11
16
76
68
0F
6F
11
04
75
72
05
11
77
78
68
0F
68
7D
6B
0F
1E
7B
14
00
70
74
64
74
6A
19
6C
15
04
02
7F
78
09
7C
04
78
7F
77
01
01
0D
7D
06
78
75
70
77
7A
7E
6A
09
7B
6D
77
1A
13
70
6E
66
18
02
6C
02
6F
64
62
1E
04
69
16
6B
05
6C
7C
0D
1A
0D
13
7E
04
7E
1B
64
0A
66
15
0C
1F
7B
1C
70
10
7D
63
77
03
72
10
68
0D
77
09
7A
1E
6C
13
0C
0D
6E
08
77
14
17
76
6F
13
6B
15
6C
62
79
15
13
6E
6A
7D
7F
12
6E
62
79
7A
78
05
0F
05
7A
18
0D
0C
76
11
69
03
03
78
05
0C
12
74
01
15
6C
0F
07
73
7D
78
77
77
17
0D
6B
04
21
6A
7D
04
14
7A
71
19
7E
69
74
67
0E
78
79
20
7A
6B
09
6A
19
10
6E
65
65
71
7D
01
11
6F
72
70
64
00
08
19
09
13
10
18
05
69
69
6D
02
76
13
6E
7A
71
65
16
66
6F
0A
0D
11
75
70
09
7F
77
12
7D
0D
11
7D
6D
01
05
7B
14
76
7D
1C
70
0F
67
71
7C
15
09
08
08
63
6A
7D
08
06
79
1F
7B
75
6B
12
14
07
68
7C
7C
71
7D
16
6E
78
0F
6E
6A
03
64
78
03
09
7B
72
7D
08
12
79
65
11
11
7D
79
7B
17
7E
11
0C
14
7F
72
05
08
7F
18
7E
76
74
02
13
76
6B
18
16
07
6E
5C
66
7E
73
12
04
19
75
6B
72
76
13
04
16
0D
71
02
08
18
6C
01
04
68
7D
0E
0D
7B
77
03
70
16
72
79
7B
00
7F
64
6A
09
05
79
7A
70
00
16
7D
20
67
19
6C
78
77
04
1A
15
6D
64
0D
66
0D
18
7A
78
16
70
7D
6A
03
0E
00
0C
78
05
77
0A
06
7C
16
78
7E
6D
6D
77
72
19
04
19
6F
73
0D
5E
6B
00
71
11
15
09
12
69
0A
6B
0D
5D
17
07
79
03
7F
0F
08
5E
1B
0D
75
08
7D
7A
65
7B
07
75
6D
14
66
01
17
0F
01
5F
15
13
18
73
78
74
1C
65
7F
6B
21
13
6D
12
7D
6F
15
6D
02
00
12
18
77
65
7B
7D
69
7A
0D
0A
70
18
14
1C
64
0E
5F
0C
03
7A
7F
79
06
1F
7D
79
6C
7D
10
6F
0B
6E
1E
6F
18
6F
09
6C
5F
69
11
0B
63
04
14
15
01
15
01
78
72
1E
01
0B
68
0B
64
0D
70
0E
6D
02
0A
1A
65
19
16
6C
12
00
03
76
7D
77
14
0C
66
07
13
67
0C
07
0B
70
7E
7C
05
7D
1A
72
03
17
13
6F
6B
22
67
7B
6B
68
19
0E
0C
7D
1E
72
74
6A
6A
7C
77
69
6E
74
05
6C
70
66
13
06
05
11
69
07
77
7B
6D
7E
1B
6B
74
10
01
0F
03
0A
6D
1A
6D
73
68
77
69
5B
73
68
73
68
0B
6A
79
15
20
25
10
1F
1A
64
68
7E
27
7B
7B
6E
75
7D
0F
03
6B
7B
0D
04
02
19
21
04
05
11
0A
6F
56
08
05
7D
02
7E
6D
6C
6B
6A
09
04
6A
7E
64
6D
00
75
10
66
7B
64
05
01
09
7D
71
69
0C
11
17
7D
68
6B
7F
1C
08
13
73
6E
75
1F
0E
61
65
0C
0D
2D
06
00
16
15
0D
0B
33
06
19
6A
13
66
79
69
25
01
73
73
7A
66
0A
03
0B
0D
69
19
0E
0C
0D
63
03
04
06
12
23
79
75
66
68
16
13
0B
6A
63
68
6D
07
05
6E
74
79
06
18
1E
01
01
1B
75
03
7B
06
67
0E
78
74
1B
5F
0F
65
03
70
15
03
16
74
24
79
6F
02
73
7E
7B
00
16
04
25
77
05
16
15
6D
61
72
17
06
05
65
02
05
70
09
67
7D
59
16
79
1A
78
69
7B
71
65
01
07
75
03
1D
09
76
5C
04
26
0A
79
7B
7D
77
7C
60
0D
74
76
6D
0E
30
1C
16
6E
11
60
04
17
7E
18
67
73
0F
0D
78
0A
06
09
7C
05
6A
01
1B
0C
7D
02
19
03
20
6C
13
0F
62
12
76
03
73
13
1E
68
73
69
7D
74
0E
79
02
1E
6E
67
1F
07
7A
6E
1B
7F
0B
0F
19
74
70
18
6D
79
73
05
12
19
72
09
04
0E
78
72
75
18
69
6E
10
71
67
12
01
04
08
5D
74
22
6D
78
79
0D
01
78
0E
18
10
68
1A
73
75
03
19
70
0B
18
15
73
22
64
05
7E
7D
5A
0B
09
04
70
65
18
7E
11
09
0B
7B
67
06
66
70
1C
68
01
10
0E
79
79
7D
03
68
79
7E
24
7C
7D
05
15
17
7E
04
11
0F
05
04
0B
18
02
71
6E
08
66
10
04
05
6F
63
11
73
6D
0B
7C
0F
6F
0E
11
65
79
05
7C
7A
65
66
63
08
74
6F
0D
75
1A
06
7E
03
77
0F
13
74
12
0E
7C
7E
04
68
04
0D
19
08
71
6A
7F
65
6B
7E
19
69
6C
0D
09
08
03
7F
79
0F
05
6D
10
06
1A
77
06
02
72
08
68
1E
0E
08
08
04
72
02
7B
6B
08
03
7F
69
66
66
75
10
18
0C
0C
05
6F
7F
15
78
1B
16
6B
0B
6C
6D
00
7B
00
7B
1F
00
71
78
70
0E
0F
17
09
00
04
0F
74
0D
02
6A
70
73
73
5F
07
76
7B
00
7A
03
25
0C
15
66
05
07
0E
7D
6A
6E
71
72
0F
01
7B
13
7E
0C
0B
13
6C
7B
21
7E
6C
14
18
0B
1D
01
05
01
66
17
01
59
0C
1A
79
7B
74
00
7A
67
1A
77
6C
71
0D
06
7A
6D
01
71
78
79
03
7B
73
7D
67
15
76
75
16
16
6F
0E
0B
08
79
7A
06
68
7B
0D
11
18
0D
7A
62
63
0B
0D
76
75
77
05
0E
7F
10
00
15
00
09
0B
11
6E
07
0B
05
10
75
6D
70
69
79
0B
73
69
0D
65
1A
0F
03
03
7C
71
16
10
6C
78
6E
72
0B
15
25
70
79
17
12
0D
0A
68
7D
6B
5E
68
71
7B
7F
60
10
04
17
60
67
66
54
0B
22
03
12
78
2E
67
78
7C
02
6B
73
7F
63
76
06
15
1D
76
10
63
06
15
0F
00
18
5E
0C
11
69
04
02
1C
28
08
26
0E
6C
14
0B
0E
7E
66
6F
19
15
28
6F
03
7B
5C
10
14
03
76
02
1E
65
65
63
6C
07
6D
6C
67
6C
04
21
08
67
04
07
0B
11
09
7E
7A
19
1A
7A
0D
03
74
04
6E
4F
7C
01
01
29
66
17
54
6B
69
64
17
73
72
18
02
6C
16
64
12
1E
2B
73
6E
18
7B
09
6E
70
79
7F
5D
0D
5C
17
6A
11
6D
25
6C
72
20
55
0C
08
18
03
18
12
72
7E
72
12
62
5A
76
75
72
0B
17
0E
77
16
06
73
65
67
59
6B
08
04
13
62
04
15
0A
23
79
0C
77
70
7E
0A
6F
0F
7E
6E
16
2A
23
79
03
09
7A
69
13
28
15
08
7D
76
69
1A
66
7C
02
58
13
0A
6C
03
6B
66
5F
10
06
16
5D
26
00
6B
7E
0F
68
04
77
7F
6C
74
12
22
78
08
6F
76
64
18
05
08
69
13
6E
06
12
75
21
75
79
0B
7C
5F
7F
79
7A
04
10
79
7A
60
05
01
1E
05
7B
00
08
04
75
10
23
0C
65
78
00
7E
6D
07
78
15
7F
7C
7F
56
15
15
26
1C
1E
59
7D
75
69
5C
70
76
68
6B
17
69
18
64
0E
65
6A
1F
0E
79
0F
0D
17
2D
6E
19
17
09
17
26
26
00
0E
17
27
00
24
76
0B
79
17
5F
7D
10
69
56
7F
0C
1F
57
08
21
7C
6C
7E
77
6E
6F
6E
7F
01
05
77
16
7B
75
7A
7D
74
79
02
67
69
72
6B
02
6C
13
0D
79
75
21
73
12
0F
7E
7E
6D
1E
76
11
5F
6C
65
79
7A
6D
05
15
08
04
01
70
0F
09
0E
04
13
73
65
25
0A
61
77
2B
03
06
6C
79
1E
66
6F
12
5B
18
66
22
1B
73
59
65
5A
10
0C
14
6C
67
0C
03
08
18
16
0C
75
01
7B
14
1D
14
7D
15
12
12
78
68
6A
04
74
11
18
03
0B
14
01
08
75
19
25
02
57
0F
05
6F
05
0A
78
21
76
13
2B
07
14
0A
64
14
70
67
21
14
65
04
15
09
75
7D
71
6E
73
08
79
0B
5A
7D
14
6F
6B
19
00
74
10
0E
7F
7C
79
07
79
1D
14
75
01
0F
04
04
13
00
71
79
67
0F
07
76
12
74
62
76
01
59
6B
20
12
69
64
26
6F
03
14
67
79
02
65
13
07
6D
10
21
1E
07
08
66
12
68
77
77
77
06
72
73
77
6B
02
6C
66
69
27
0A
02
0F
6A
7F
2A
7F
73
71
7E
73
02
1B
04
67
69
12
00
79
74
6F
09
10
6C
6F
1F
77
0A
7F
7E
0A
75
74
00
06
1B
63
6A
11
14
11
16
72
09
23
10
1B
74
7C
03
66
75
63
72
16
6C
0B
16
05
65
1A
6E
11
0E
0F
17
05
6D
76
6D
10
07
15
6E
17
12
19
76
78
11
05
67
0F
7D
7B
07
7A
0B
7B
6B
0A
06
01
04
06
07
7E
72
09
00
76
08
79
12
6C
66
6C
7C
73
0E
17
18
7B
03
74
0D
70
7F
75
0A
6C
71
0E
07
09
72
66
15
78
6C
00
19
72
02
6B
0B
71
7E
67
6D
16
11
07
69
69
66
05
1B
71
0E
16
71
73
78
14
7C
7C
7C
72
13
74
77
09
69
04
68
03
66
0A
0A
13
03
1C
01
14
0F
78
68
7A
01
6A
00
6C
6D
01
14
08
15
74
69
6D
73
15
0C
05
7A
14
09
69
6C
6C
66
18
78
70
7F
02
0F
05
0F
0C
71
72
0C
16
14
03
6A
12
70
13
0F
71
63
71
12
72
07
78
76
15
04
15
0B
7D
70
1B
73
70
0A
72
1D
6D
75
14
14
76
1A
17
77
79
03
74
02
19
00
66
74
03
78
0C
6F
6E
16
7D
75
69
10
13
6D
6A
79
15
74
1F
6E
67
78
6A
7C
79
78
76
6F
04
7C
6C
15
68
7B
09
14
72
7A
67
0D
6A
05
0A
7F
1F
65
7A
6A
6F
78
11
1A
68
1B
13
7B
17
72
15
77
6F
7A
7C
14
10
06
1C
78
07
12
0A
72
6F
6D
6E
75
15
79
07
18
02
16
6D
04
6B
10
08
08
6A
6B
06
0C
08
68
01
04
04
7C
71
05
72
68
6A
7A
15
70
11
09
09
6C
6B
0A
77
77
15
74
71
19
10
07
17
09
66
04
67
14
0A
6C
7B
1D
79
11
7E
17
66
03
07
09
79
10
12
0A
7D
78
6C
04
1C
7E
0B
13
6F
68
03
1A
65
72
69
76
0F
70
09
78
06
7B
75
6B
0E
72
74
07
01
77
00
77
00
6B
11
05
6E
71
12
7A
7C
7B
65
6E
04
7F
6A
11
08
16
64
03
1D
13
06
7F
7D
15
04
67
10
7A
18
79
00
04
09
6B
03
76
0E
13
71
18
71
75
01
79
1C
7B
68
14
70
79
6C
14
14
18
0D
75
09
68
12
6A
76
0A
0F
15
00
05
0A
6A
15
7C
00
6D
01
70
68
7A
18
79
06
06
69
75
17
14
10
6F
71
6C
7B
0B
66
02
76
0E
7B
73
79
04
13
72
6B
0F
1C
04
67
03
13
7F
0D
78
1F
76
19
7A
19
70
7D
61
05
0D
7D
1B
66
6C
79
08
02
6D
7A
12
68
03
71
6B
17
67
08
77
1B
7A
01
68
6C
70
78
15
07
05
09
78
14
67
07
70
0D
63
0B
67
13
08
6B
1F
04
06
77
07
6A
12
05
0A
79
0E
68
68
6B
0B
04
00
03
19
06
6B
13
64
17
0A
77
68
11
06
77
00
11
71
0D
64
76
76
10
7D
6F
73
79
03
01
07
6E
69
08
68
06
12
78
15
17
6C
07
78
76
03
0F
7D
0D
11
68
0A
72
0F
6C
6D
00
05
05
13
01
18
14
0D
68
78
7B
6D
18
17
70
06
05
0A
17
03
78
04
71
14
16
13
6A
78
6E
7F
0C
6C
71
03
77
05
75
7A
7F
0C
02
12
17
1C
09
06
0C
72
65
00
6A
09
7C
72
68
09
7A
70
67
7D
18
7B
0C
0A
76
7A
75
17
1A
07
08
03
76
01
01
7D
1A
16
66
6E
14
74
0B
75
68
04
02
76
77
1A
10
18
16
65
74
7D
04
72
6B
1C
0E
14
00
0D
01
12
1A
00
68
14
00
12
74
11
03
08
73
68
16
05
71
1A
08
0F
17
15
0E
7D
71
71
73
0C
6D
0D
11
75
78
03
6B
02
11
0A
71
0A
12
6C
69
6B
13
1A
0E
7C
7D
79
6E
6C
12
17
15
13
1A
7D
69
79
75
01
7A
75
03
08
70
76
02
19
6F
1D
02
7A
7B
6A
72
0B
7E
03
05
66
69
6B
7E
6F
03
13
17
0B
6C
7A
1D
65
7B
19
0E
05
6F
06
10
1B
0B
79
71
07
7F
1B
68
0E
0F
18
71
69
16
16
78
7F
07
72
1B
18
05
05
72
14
69
03
14
7C
72
1B
6B
6D
76
68
12
0C
10
64
74
6F
17
15
6E
70
7A
16
16
64
13
72
1C
13
06
10
06
10
7C
7D
0D
66
04
04
02
7E
02
69
67
15
7E
66
0D
6C
7E
09
12
14
77
7F
79
0F
11
1E
67
68
6D
66
74
0A
78
77
0B
01
0D
7A
79
7C
6D
0A
73
69
12
0A
07
7F
06
12
71
74
14
13
02
19
7B
11
6F
64
78
6D
6D
0F
06
79
14
73
03
74
15
02
12
0C
6A
0F
15
70
79
00
0D
73
13
6B
7A
02
68
12
13
64
11
69
02
1A
18
10
71
0F
13
67
14
78
76
05
6B
0C
10
7E
00
06
0E
78
76
0C
75
65
16
1E
1E
02
76
73
6D
73
6F
19
16
10
67
0A
05
01
72
73
1A
7E
10
0A
04
75
6E
75
6A
76
0B
0D
04
71
7B
6C
7A
04
78
74
6C
74
06
17
1A
7B
77
17
77
0D
6E
1A
1B
00
67
1D
68
75
67
15
76
03
75
6E
13
07
72
77
70
73
6F
11
7E
09
74
1A
05
16
7E
0E
62
79
0A
66
05
01
71
1A
03
0C
20
6E
17
0A
20
17
0D
6C
73
71
74
10
07
75
07
1B
18
6E
17
19
17
67
74
0E
75
6C
03
14
78
68
74
7A
10
18
19
7B
72
77
72
6C
0F
03
1F
65
0C
1E
62
03
00
00
7D
6D
7C
70
1A
0D
18
00
20
74
00
7A
69
01
0D
7E
76
7D
7B
08
68
72
0D
7D
68
7A
6C
6E
69
0E
6D
08
06
7C
1A
12
01
12
00
0C
18
0C
72
1F
67
0F
01
65
04
18
13
0C
69
6F
0B
20
68
25
13
04
7F
79
63
0D
7A
7B
6D
09
02
6D
7A
6B
01
05
7B
07
0A
74
11
0D
10
6B
02
0C
0B
5E
76
09
0C
6C
7E
7C
63
74
6F
7D
7E
76
7D
6D
0D
11
10
7F
12
0A
6C
04
6F
70
05
73
01
0F
67
6B
13
7F
72
0C
11
7F
13
0C
77
15
75
70
6E
0E
17
74
1B
04
06
1C
19
0B
0F
66
04
71
1A
63
6B
02
7E
7C
72
75
75
73
79
1A
13
71
0C
66
09
06
2A
78
0A
68
7A
71
13
03
12
7A
70
18
7A
18
77
1D
76
69
04
65
7D
78
76
1A
15
01
71
64
76
6E
6D
0E
0C
70
07
07
74
22
08
12
59
5A
6F
7C
6A
68
06
1C
07
75
68
0D
6D
7C
7E
0B
74
08
03
0D
12
78
5E
0A
7B
13
7D
02
1B
01
7F
6F
16
06
71
4D
72
11
0F
73
75
5D
78
07
76
6F
60
2E
79
10
79
5F
75
15
19
7B
16
1B
67
0D
7A
14
76
12
6F
10
0C
70
0C
09
6C
52
72
7B
6E
0D
71
05
71
0A
73
67
01
73
03
22
02
1A
03
6E
16
06
65
0D
0B
7C
62
18
60
24
09
14
04
0A
12
6D
6F
66
0D
65
76
7F
1F
1B
78
73
2C
6A
74
5F
06
06
76
03
0B
25
57
67
6E
75
07
06
77
0B
0B
23
1A
1B
65
12
65
11
7F
6D
7A
11
6D
65
22
6E
7C
7E
74
25
01
00
74
72
66
79
6A
73
0A
7E
75
03
71
6A
12
6F
09
0B
09
6A
73
05
16
06
6E
65
6C
07
70
56
0B
05
76
27
7B
19
0A
64
18
0D
16
76
05
10
08
5C
07
69
18
0F
7B
19
0F
20
04
11
78
0F
09
26
11
10
0D
0B
0F
7E
6E
69
7A
79
06
00
5B
26
00
04
77
0F
6F
12
1A
7B
1A
77
19
1A
17
25
24
72
0B
08
6B
60
15
0C
06
14
14
11
7F
05
59
02
7C
1B
02
02
17
7B
11
71
15
03
62
6B
05
04
19
1A
04
00
02
08
69
16
6F
08
01
19
13
5D
04
57
09
6A
03
05
19
01
7D
73
6A
7A
08
07
69
04
1E
69
08
72
73
59
5E
12
6B
61
63
20
74
0E
66
14
77
7A
24
6A
0D
1B
6B
0D
25
6F
71
1A
17
7D
7D
2A
67
22
6B
0D
7D
0D
0E
72
0C
71
09
15
05
67
7D
7C
02
67
6E
6A
05
22
7D
0F
70
78
1F
70
7F
67
15
74
7B
20
79
6E
70
67
1F
65
6C
0F
17
0D
1D
18
69
08
76
7D
71
74
14
73
70
17
6E
7C
18
74
0C
6B
6E
6E
6E
5E
0D
14
01
7B
20
7C
72
00
02
0D
74
19
07
08
6A
0F
04
0C
0D
72
18
78
6A
7B
0C
03
76
0C
64
70
0C
71
01
02
73
6A
00
28
7E
7C
12
1C
16
07
7F
1B
7C
69
05
0F
01
7B
07
69
76
7E
07
7B
6F
7A
7D
25
62
20
13
67
7C
03
16
66
19
01
1C
7A
11
08
0A
08
14
0B
68
71
03
72
10
08
65
6B
0E
11
69
15
7A
79
65
73
15
72
0C
04
06
63
08
7B
5E
15
76
13
0B
75
18
01
27
19
14
75
07
7A
68
09
69
79
02
00
08
16
70
7D
7C
02
07
68
11
09
1B
74
7E
70
7C
68
1E
02
68
7B
16
71
12
77
74
79
65
0D
74
76
78
08
11
1A
73
5B
7C
7D
64
7B
74
02
6C
0F
06
75
0D
0A
05
13
09
76
68
0B
62
76
64
67
0E
24
17
05
12
79
79
00
66
14
14
08
0E
63
10
61
7E
05
5B
7B
64
04
65
00
7D
15
68
67
1F
0A
07
0C
1F
6F
6E
6C
0B
6E
74
0F
07
7E
0B
7E
0B
75
08
6A
73
13
06
6B
1F
0F
13
66
19
65
1D
16
7B
11
7F
7E
5A
5D
04
0F
71
14
21
73
7F
22
12
5E
68
7B
6C
7F
64
10
03
6B
11
65
02
10
19
09
75
05
0B
1A
6A
09
03
65
05
25
28
11
6F
12
0F
64
0C
0D
7B
7B
23
6D
06
10
78
16
03
07
17
07
08
7D
57
0C
0C
61
7A
65
0E
77
08
07
6E
01
68
60
7D
05
7A
5F
6E
20
1A
5E
11
76
61
08
16
7D
71
24
5E
1A
03
09
7D
58
74
78
00
13
78
0F
6C
6B
02
0C
6F
63
6A
65
74
05
00
7E
6D
1D
73
13
70
74
08
67
2C
6D
24
28
05
78
77
05
77
78
19
65
7C
1E
12
79
69
0B
13
65
7C
72
08
19
15
12
11
00
07
7A
57
27
72
2A
63
11
72
7F
7A
68
16
6C
77
7A
05
7A
14
1A
14
09
08
7B
69
0F
0B
64
18
7C
64
7F
09
61
14
68
6D
29
5F
76
62
71
6B
0F
67
0F
7D
09
0B
6B
0E
66
78
6A
7C
61
0A
13
0E
5B
0A
0A
54
14
69
13
6E
1D
0D
27
0F
0E
1E
59
78
66
26
63
75
16
0B
76
0E
71
10
06
78
7A
0C
1B
5D
03
0B
79
00
73
17
12
78
5E
09
06
15
7B
03
13
18
6D
17
7D
08
7A
18
11
06
03
0A
12
14
63
75
03
6C
70
1D
6C
6C
1A
03
07
60
7D
65
23
1A
76
06
00
6D
6D
77
7C
02
1E
1C
78
68
01
2A
78
03
6A
78
1F
0F
6E
09
11
7C
78
6A
00
15
78
69
27
08
6C
54
04
78
70
79
07
6B
7D
05
05
6F
5C
74
73
7F
77
74
65
0A
6C
0E
69
69
67
0F
0D
16
23
6A
14
12
15
7F
77
75
6E
22
06
70
10
07
66
1A
13
07
5E
08
66
08
22
7E
0B
66
12
54
13
6E
78
0C
00
08
0E
19
70
6B
22
13
66
6F
73
05
13
00
0F
12
12
75
6F
79
02
64
6B
64
6D
05
64
0B
72
0B
75
75
02
04
01
16
7F
16
07
7A
67
72
6C
1A
11
7D
76
10
07
7E
04
1E
0D
09
76
00
08
0C
09
07
7B
6B
12
75
69
71
74
60
76
71
12
69
15
1A
27
7C
77
1F
72
7B
0B
7C
1B
05
19
7E
7E
69
6A
6D
6C
0C
06
74
12
15
18
0A
20
26
71
6F
5A
77
7B
03
77
13
16
78
14
7F
06
12
7F
1B
04
11
6C
00
69
19
0E
68
68
0A
1F
06
78
16
0F
09
11
0D
03
6B
67
14
0B
02
7A
0E
1E
0C
02
6E
68
7D
7E
67
6A
00
03
09
76
02
12
7D
73
72
23
71
12
6C
78
68
22
07
70
01
7F
77
7A
0A
66
63
7B
7E
61
19
68
69
17
18
12
06
72
13
0E
7D
04
7B
1A
7B
6B
7B
0A
0A
13
6A
00
06
08
66
09
1A
07
6F
70
7B
0B
02
75
6B
72
0E
60
07
71
09
75
72
6B
6A
7A
18
13
7A
74
14
06
69
73
6B
6F
22
76
6A
13
17
6E
66
79
11
7E
1B
10
76
76
16
6E
72
71
73
1E
71
72
26
69
08
0B
17
0B
7D
7D
06
6A
1A
75
14
73
79
04
16
77
09
21
0B
70
06
74
17
6C
09
19
7C
03
75
7C
09
09
0F
64
0E
21
79
66
73
0B
19
12
1B
08
6C
77
08
79
66
0E
05
67
1A
67
76
7C
18
73
73
02
7A
22
08
14
17
1A
7E
07
68
78
73
01
03
77
73
18
65
0F
6E
0C
18
1A
69
0F
08
05
77
74
5C
15
76
66
18
05
69
0A
02
6F
77
61
02
77
7E
0C
20
01
69
7A
00
66
7E
01
0C
62
7D
7C
0F
73
64
11
6F
66
6A
7C
77
1B
07
75
77
77
77
78
6D
18
7F
0D
01
06
7E
0E
05
0F
68
1B
69
1B
70
73
00
19
66
74
65
0F
03
12
6B
01
70
10
63
78
18
16
74
0C
09
6A
7E
12
11
07
04
7A
7D
0E
7C
6C
7F
68
6C
6C
6D
0E
76
16
10
05
6B
73
6A
0B
06
7D
05
1E
0A
02
19
20
6D
7E
70
6C
06
0C
11
7C
6B
73
0C
6E
07
0F
06
01
13
6E
79
75
12
69
77
6B
05
6E
1A
6E
79
7C
0A
74
6D
0F
75
0B
7E
69
7D
64
1F
71
02
6D
0C
16
7E
10
07
62
05
0A
02
0F
23
0D
1C
02
0D
78
0E
0E
73
0B
6C
72
73
0E
76
0E
15
77
63
1C
78
12
1E
1A
0F
7A
06
7D
7B
0C
11
20
6A
6C
78
00
03
1D
67
12
7C
14
72
06
6B
67
15
03
7D
66
75
78
68
77
06
05
13
05
0E
6B
10
78
70
21
71
05
69
7A
0B
11
00
12
14
07
18
09
1C
7E
12
15
68
20
03
14
15
73
05
0E
0D
6D
62
00
0B
7C
70
06
03
6C
01
73
7F
6E
0C
16
76
15
0A
7B
6F
74
76
78
69
1B
10
7B
77
05
06
7A
0F
15
6C
03
79
01
70
73
77
7A
0F
7A
15
08
05
79
7C
0F
14
65
77
0F
01
14
7D
14
05
05
06
64
76
73
1A
19
11
02
08
14
77
08
7A
1A
0E
64
00
08
0F
08
6E
7C
05
6C
74
0C
69
76
12
09
78
0F
71
6B
09
16
74
06
75
6B
6B
00
12
15
18
18
15
06
65
6F
6F
7B
10
77
0C
00
7E
74
79
03
1A
70
7C
72
67
6E
12
0C
05
08
6A
7A
74
6C
65
00
02
05
0F
19
14
6F
6A
7D
04
6B
7D
0F
73
74
01
6D
7F
7E
04
74
19
00
01
06
76
14
12
07
0E
7C
03
72
74
68
1B
69
6A
11
11
0F
15
02
7C
79
19
11
08
17
0D
01
7C
07
68
77
09
65
04
71
71
16
73
0A
09
74
08
13
6C
78
01
6C
09
1A
6D
01
1A
7A
0F
6A
0D
12
6C
64
19
68
1A
09
6C
79
16
00
66
72
67
6E
0F
71
77
7E
66
78
79
10
7C
14
6C
77
7D
01
12
7C
09
6C
08
0F
75
74
0C
0F
6F
0A
7B
78
15
6F
7A
68
05
68
04
65
05
7D
07
04
79
6F
04
14
78
08
11
11
65
7B
00
01
1B
14
79
08
07
06
7A
0D
68
12
0C
78
01
73
0D
14
6C
7A
73
20
7C
65
70
6C
0A
74
73
68
74
05
1A
11
18
21
05
77
1D
76
00
04
64
72
72
06
6D
74
11
68
06
7E
73
69
0F
76
68
10
6C
6C
0C
04
78
7A
19
6A
08
7D
04
16
6C
79
68
16
15
7E
0F
6D
75
20
0E
12
16
00
6C
21
17
0E
0C
16
76
66
07
7E
7E
75
10
18
7B
03
7C
72
7F
0B
74
03
64
15
18
0B
7F
7F
01
76
14
67
7A
71
12
72
19
7F
07
64
08
68
09
17
0F
06
7C
01
15
03
7D
69
10
12
67
65
10
11
14
0E
6B
0F
79
0D
63
13
0B
00
02
75
19
7D
19
75
7E
74
77
1C
13
06
17
6A
1E
7B
69
73
16
06
15
1A
66
11
65
74
06
10
65
05
17
1B
07
78
6A
6F
09
07
16
6E
7E
02
0C
08
18
0B
7C
7E
03
10
04
1F
6C
13
7D
06
79
09
73
16
10
1E
75
0F
77
68
09
06
7E
17
6D
16
78
06
7B
0E
6B
70
17
02
7B
6C
15
07
15
7C
78
65
04
65
08
18
07
66
07
08
79
11
0D
69
75
6D
73
12
0E
10
78
70
13
7E
6A
7E
6F
19
7D
66
0D
14
15
6E
7F
18
10
77
72
13
05
05
7C
1B
6F
6B
72
7F
06
68
73
02
77
6C
6D
14
0A
10
0A
16
6D
1C
18
03
08
0F
00
12
07
11
13
06
02
6A
64
10
17
69
1A
0A
17
02
17
0D
05
6C
78
02
67
7B
79
7C
09
17
71
17
01
77
10
79
08
71
1B
09
74
6C
03
13
09
7F
07
77
04
6F
04
6D
6A
06
6C
71
06
0D
77
79
6E
65
74
66
6E
04
69
68
01
12
6C
79
71
6D
19
77
75
7C
16
74
05
17
77
15
12
1E
0C
1E
1A
17
01
7C
14
0C
6C
79
09
04
74
0C
68
0E
68
16
6D
79
15
08
71
72
1A
03
02
12
15
71
7B
0F
6E
0E
7B
69
7A
19
7C
12
7E
74
75
74
6F
11
70
6C
76
78
0F
70
17
12
15
0A
04
08
0C
67
21
07
00
65
6D
74
6F
0B
0E
7B
72
15
06
15
17
08
12
0D
6C
71
7E
03
0E
03
13
68
06
13
0D
09
72
74
74
7C
12
1D
0F
1A
72
12
7B
70
22
7B
15
12
0A
1B
0E
6D
7A
0A
6A
01
7E
67
03
7C
61
6A
09
09
03
0E
03
11
01
7D
16
07
01
72
01
0C
0E
68
00
02
75
0B
6A
0F
15
7B
0F
79
0E
0B
0B
72
14
7E
77
7E
10
08
77
7B
0A
77
05
16
0D
1B
0A
7E
73
73
04
7C
04
71
74
06
7B
10
73
17
6F
6D
03
7B
6F
5F
6F
7E
18
67
23
18
06
01
13
01
7F
14
05
7D
02
78
6D
05
0A
09
7B
0F
0D
08
1D
08
6F
79
69
64
02
78
09
72
7D
16
18
6B
6D
6E
19
0E
0C
10
01
7E
1E
7B
07
12
7A
77
0D
01
17
6D
0B
0B
64
0C
53
07
05
15
0F
6E
7C
7F
0E
24
7D
01
73
72
13
65
68
68
30
0C
71
71
7E
22
76
6B
02
0F
7B
7F
64
03
04
03
7A
06
64
6F
08
17
07
79
04
75
07
11
09
73
64
75
0B
76
64
79
0D
78
69
7A
11
6B
71
7B
15
02
7D
66
17
68
13
77
7C
04
07
08
07
64
10
04
01
0C
05
54
0E
28
79
1D
55
04
0C
77
7B
03
07
04
10
78
18
5C
0D
67
61
71
79
1B
6F
1B
6A
07
0E
05
70
2B
7A
0A
13
10
0A
15
00
6C
66
78
06
68
7A
0C
10
73
78
0C
0B
62
07
69
7A
08
65
10
0D
1C
71
65
20
77
10
7F
0A
7E
18
15
77
1B
7E
16
6B
5B
65
13
0E
0F
71
7C
67
08
11
25
5A
0D
07
66
77
0C
79
7E
1C
0D
66
1D
1A
79
05
6A
76
50
0E
07
01
7B
70
54
0D
6E
1B
7C
12
5D
10
7D
78
6B
04
22
01
70
73
75
67
29
75
5B
0E
7E
03
05
76
6E
7F
0E
05
6A
22
05
0E
6E
71
63
0F
12
70
03
0B
7A
13
0E
6D
0D
10
1D
0F
25
70
06
27
77
6C
6D
07
6A
78
6B
5F
66
7B
24
76
07
6D
69
69
73
10
0D
6E
66
73
29
76
7A
01
70
13
7F
17
10
19
04
7F
77
6F
14
7A
0C
6D
7F
0A
23
64
73
0D
11
72
10
0F
7D
5A
78
0A
6C
71
19
7F
05
7E
74
0B
70
0B
1F
14
09
18
78
70
71
6B
71
0C
19
1B
6F
77
05
08
58
7B
03
04
78
22
6A
7F
6F
06
6E
05
26
70
12
08
0D
14
0B
05
08
6D
63
2A
16
0E
7B
03
07
1B
7A
05
66
6F
09
73
29
22
1E
15
0F
0D
03
79
0C
11
77
23
10
78
72
11
6A
14
79
5F
6D
5D
04
75
68
5E
5E
7C
08
0B
11
65
0F
02
25
76
04
11
14
19
11
03
06
14
7B
7A
2A
08
69
6D
14
7D
62
6C
25
6A
78
27
01
05
03
1A
09
69
5F
74
00
71
73
6B
13
79
6E
21
19
05
77
7C
74
73
75
73
75
72
7D
65
29
6C
66
12
76
7E
54
77
12
7A
0A
14
63
65
67
69
0B
7C
13
18
0F
79
0E
19
6B
01
67
71
12
0C
19
13
63
65
78
25
01
0C
05
72
0C
11
0B
0D
17
06
02
10
6E
6F
61
68
67
0A
6D
76
63
6B
6D
5F
64
73
0D
56
09
0C
13
5B
07
16
6E
73
7D
03
79
01
00
7F
17
6C
00
0B
7E
0F
1B
03
08
0C
28
0D
68
6D
66
04
03
0B
17
14
73
76
75
74
0B
17
12
72
76
6C
76
75
6E
6F
78
1F
02
79
0A
76
78
78
00
0D
1F
04
02
6A
16
74
28
69
68
70
0C
0D
79
04
77
16
74
1D
7A
06
5B
7E
11
0E
1B
08
15
0A
19
78
71
14
7A
07
76
25
7D
76
79
71
66
2A
0D
69
7C
61
79
02
12
1F
7E
77
0F
6B
7A
0E
71
07
6B
0C
05
0A
7E
13
22
78
66
0C
09
68
79
74
6E
13
0C
0B
75
6C
09
0C
06
6B
02
10
68
5E
02
7C
76
00
0C
55
7C
0E
11
6F
5B
14
13
18
04
16
1E
71
74
12
5B
6B
13
78
03
22
16
79
11
6E
63
14
0F
69
6D
13
6F
77
7E
71
77
7F
2C
00
7B
66
00
77
22
7C
09
16
78
66
03
04
0D
64
66
0E
63
06
6D
0E
16
00
09
6D
0A
02
77
17
05
1E
04
6A
1B
5E
01
6B
63
0E
66
06
1B
6B
03
74
66
68
7D
78
79
04
06
11
79
6B
66
0D
02
6D
64
7D
0C
6E
1D
66
1D
15
0A
02
63
6A
73
28
79
10
10
68
72
7F
69
0D
78
0B
64
10
78
01
7E
05
04
69
6C
07
01
0F
0F
2C
05
1B
00
00
67
19
7B
70
5E
0F
7F
1C
10
1F
71
65
1A
02
61
04
09
58
77
7F
1D
68
58
15
76
01
1E
66
23
7E
11
71
73
0E
0D
03
0C
18
2E
04
1A
67
01
79
6E
68
13
72
7C
1E
7A
65
13
14
11
0F
58
09
71
13
0A
54
05
59
63
67
6B
76
0F
7E
7E
0B
73
1A
67
0E
07
66
11
17
7D
66
7A
74
18
62
12
69
18
08
7A
07
79
2B
03
16
6E
67
6E
02
0D
21
6B
09
6A
13
73
77
77
07
7C
70
05
01
7B
77
79
71
10
15
12
72
6C
12
0C
04
7E
17
12
78
05
08
5C
71
71
13
0E
26
02
78
7D
14
17
09
1A
64
77
02
01
67
04
0D
65
63
19
0A
78
7A
75
68
27
6C
17
6D
0C
76
1D
7D
7E
15
18
01
03
1C
72
65
01
13
5D
09
1C
6D
68
0E
7E
7A
71
14
76
0A
77
72
7A
09
05
69
1C
1A
04
76
0D
0B
12
06
19
04
1E
70
62
73
09
6F
78
79
70
18
7A
65
7F
66
7C
0C
19
01
01
77
78
06
7C
05
06
03
6F
16
0D
05
76
0F
7E
02
21
09
0C
67
7E
6C
77
0E
7F
7E
7E
19
7C
03
1A
71
18
77
7D
77
5D
18
02
14
1A
18
16
0A
7C
19
6F
7B
13
04
15
0C
63
6F
0F
67
01
70
19
77
07
64
0B
6C
7E
08
00
6E
77
0A
09
08
0A
11
1A
14
71
0D
14
70
7B
0B
5F
7D
0A
05
19
6B
7C
26
0B
66
19
67
78
79
7E
0A
69
15
1E
00
03
16
0E
19
15
13
7E
00
00
7B
7C
65
04
6B
15
5E
12
05
6C
76
62
00
69
1C
00
1E
7A
12
5F
7D
7D
10
03
6D
0D
6E
18
15
0D
1A
0E
1B
77
09
0C
67
0B
7F
6E
0D
7B
0A
7C
7B
77
74
78
72
74
6B
18
79
01
00
09
02
6A
0D
09
17
09
14
16
04
76
1D
79
65
68
76
18
7D
01
79
17
77
6E
14
68
01
12
7D
04
7E
14
0C
79
08
12
18
76
02
6F
15
1B
72
69
1A
09
78
78
04
73
01
7D
0C
00
10
0C
07
0D
5E
10
12
69
0E
25
68
02
71
10
16
02
66
17
7F
10
64
08
71
6C
77
6B
71
16
7B
68
0A
7E
11
12
69
0B
18
7A
73
69
78
7F
0A
0F
65
07
18
73
02
7C
09
67
06
12
19
69
16
68
69
07
79
75
77
05
05
07
1F
7B
6C
06
7E
75
11
6F
08
07
10
7C
78
19
15
06
09
14
07
01
72
70
07
05
12
1A
19
73
14
77
07
00
6A
14
7A
03
7A
6D
7D
0C
67
04
7B
12
16
0A
18
70
07
0C
13
63
0D
7C
68
62
66
7E
01
0F
07
7B
7C
62
14
74
0C
28
02
7B
03
0E
69
7F
05
0E
74
7F
67
71
7B
6B
10
66
68
0D
01
03
05
63
71
11
6E
6D
75
05
07
09
7B
63
17
7A
0C
7A
1D
10
10
6A
02
15
75
77
21
75
77
0C
0F
65
07
65
0A
6E
76
75
14
76
1F
7B
79
11
69
0F
69
7D
62
64
13
70
0A
73
6E
0E
78
7D
74
10
00
7F
27
18
79
75
11
10
6B
02
73
1A
6D
63
72
0B
6D
24
0E
7A
04
0E
0E
1D
6B
72
77
73
72
74
00
10
08
72
78
71
02
14
15
7B
0D
01
67
7E
10
78
7B
7F
64
1F
6D
15
1F
0A
65
0F
79
08
6D
0C
78
7F
03
05
15
5C
0E
01
17
05
09
7E
64
0A
73
6D
10
03
6C
6A
24
6C
19
5E
72
07
7E
65
04
66
78
66
7D
7E
0F
01
11
0B
78
14
64
0C
02
75
05
18
03
05
18
0B
1E
0B
0F
00
7A
7B
0A
66
19
71
17
19
00
77
07
12
7D
7D
67
0E
17
0A
02
0B
78
74
01
79
74
16
69
16
14
76
17
18
7A
6D
64
11
0A
15
6C
0F
6F
01
6E
7D
00
79
0F
66
04
73
67
69
0C
16
06
12
05
14
74
13
70
18
65
0B
07
79
01
1C
10
1B
71
0B
70
1E
7E
0F
7A
05
79
77
11
68
15
02
63
7D
7A
75
7E
05
7F
05
1A
00
72
6D
7E
17
0D
78
1C
17
01
7E
09
6A
67
65
73
15
0C
7A
7A
70
66
08
6A
0C
69
0C
16
16
76
6C
01
10
18
1F
64
67
02
14
78
0E
05
1A
1F
1A
11
09
72
73
74
75
6D
0D
75
60
75
6F
7F
06
7E
1C
67
6C
00
68
7E
06
74
18
69
7F
70
7B
68
0A
70
13
03
14
7D
01
77
6B
1A
6D
69
78
0C
1B
6A
06
75
17
11
12
6F
76
7D
7E
03
00
7A
74
0F
08
14
02
16
74
12
21
6C
7F
01
13
70
7F
16
7C
68
07
77
7B
1A
77
7A
02
13
65
14
05
0D
01
1B
6A
22
64
6F
6D
0B
02
02
64
6B
77
6D
07
11
73
0B
64
67
06
75
01
68
0B
02
76
77
6F
01
16
77
6A
16
7F
15
6D
65
0D
0B
1E
05
09
7F
77
12
7F
0D
12
6B
6E
76
0A
7C
0B
72
1B
17
66
07
07
6A
10
71
74
07
6F
7E
7C
73
7E
11
0B
09
6D
68
1B
01
72
02
6E
08
13
7D
7B
75
7E
7C
74
18
74
79
6D
6D
6F
05
75
72
1D
03
6B
6D
7C
77
13
15
10
6E
1D
7C
09
16
75
7B
0E
73
0F
18
7F
01
13
6B
7D
03
0B
17
6B
6C
67
6B
16
75
7A
09
0E
7E
0A
13
68
0F
09
6C
7F
00
64
0F
72
79
74
15
18
18
14
08
18
1A
68
72
12
7C
0E
68
7D
10
05
6E
7E
0E
19
16
16
6F
76
07
72
10
7D
66
7E
70
78
0B
75
69
6B
6C
67
06
03
69
71
7A
69
72
6C
7E
7C
09
6A
7C
78
71
76
08
1A
67
00
06
72
70
0D
0B
16
04
01
7D
25
0D
62
12
6B
5E
1F
10
7B
7D
07
6B
7B
7C
7C
0E
71
7E
09
7E
10
04
7E
67
6B
6E
7E
67
73
0E
08
05
66
12
5F
02
7B
73
77
17
13
04
7B
00
77
00
6A
68
7F
69
73
08
0D
7C
10
11
70
72
79
0A
0A
63
15
68
14
71
66
04
78
70
7C
65
79
0D
15
70
74
66
78
7E
0F
17
0F
6F
22
0A
09
72
0A
6A
65
11
77
6E
0E
0D
17
0A
17
66
00
04
7E
74
00
6C
76
6E
0B
66
69
79
04
6C
6B
16
13
67
74
1B
1E
07
7D
66
77
6A
1F
18
1D
73
05
71
04
7E
10
72
71
73
05
0B
18
1F
7F
13
0D
0E
10
6D
78
72
61
74
1B
7B
0E
0C
7D
74
02
14
01
13
76
0C
15
7C
04
01
13
00
07
0B
73
09
19
03
73
16
7E
01
12
7C
71
76
77
0F
05
16
77
7B
7D
0E
7A
00
7D
7F
06
71
6D
0F
19
01
7F
77
0F
0C
11
77
6C
12
0F
65
07
7B
7D
0D
75
03
15
73
00
0F
17
00
6A
75
7B
67
0D
76
1A
7D
6A
18
18
73
75
0F
09
13
05
1A
73
76
7B
04
7C
6E
1E
13
0A
09
1A
65
1F
0D
69
0B
69
6F
6B
70
6E
04
18
09
7C
19
11
6F
66
76
76
04
07
63
0D
18
78
75
77
68
7F
05
7A
19
67
05
76
11
0D
68
75
09
75
16
19
77
01
16
6A
6B
67
00
69
15
73
13
23
0C
14
17
66
6C
17
7F
08
1C
00
01
10
10
6D
7F
72
6F
1D
65
7D
21
1B
01
77
21
0C
70
05
6D
04
04
10
0B
74
0C
73
6D
0D
18
16
19
01
67
13
6C
7D
64
7E
16
6D
0D
06
00
10
12
72
78
63
78
05
7F
16
7C
6F
04
19
72
7D
09
17
14
65
73
14
1B
70
15
21
19
7B
19
7D
00
16
7C
05
6A
6C
0D
7F
6E
0F
77
7E
63
06
02
14
69
71
78
19
1D
7B
6C
79
71
19
71
77
08
04
78
19
71
15
06
05
7A
67
6A
7A
08
0A
01
7E
05
14
68
02
7A
77
6C
00
17
73
16
02
0F
0B
7C
64
07
6D
6C
16
13
09
72
7E
6B
7B
0E
77
0D
63
01
5E
7E
18
13
09
64
09
0C
1F
66
0E
69
7D
64
7A
13
79
72
72
66
7D
7C
77
72
09
73
7E
08
6D
72
66
0C
00
72
0A
73
7E
13
1A
08
7C
6F
14
05
6E
14
70
07
21
72
77
79
72
66
78
0E
04
66
7A
18
01
18
0D
71
1A
7E
01
00
76
77
70
6E
7A
79
78
0F
04
0E
20
07
16
6B
0C
0A
14
02
10
75
2B
10
05
08
0F
75
70
0D
29
6A
73
01
66
13
75
70
06
37
05
25
7D
11
0C
70
7B
0C
04
7D
12
7B
6B
6A
10
71
06
7D
0C
01
7C
02
1E
6E
73
77
01
06
70
75
1D
07
64
14
06
1F
77
14
74
64
04
7B
4B
7B
11
03
18
17
6C
16
0D
66
6B
72
1D
57
78
04
77
70
27
01
00
05
07
16
1C
6C
13
02
0E
22
68
07
72
02
67
08
56
7C
13
6E
01
7B
0F
07
08
7B
78
64
0D
1A
16
0E
05
1A
17
7D
76
7B
68
0E
7B
57
0A
65
7F
5B
05
65
15
0D
62
02
08
72
6A
6D
17
7D
1E
12
14
2A
74
01
11
35
7A
2A
01
06
24
4C
7E
13
60
05
72
05
64
1D
1C
03
0A
6D
29
69
0A
70
07
19
09
11
75
1B
03
7E
0A
67
21
04
72
25
76
01
72
7F
79
19
5F
7C
02
6D
67
7E
57
1A
6F
64
7D
01
22
65
5D
65
64
67
2A
6B
5C
6F
16
0E
02
5C
70
72
61
7F
0A
15
58
6D
6A
0E
7E
6E
67
64
63
73
03
04
75
03
19
75
1E
12
78
13
6D
7F
13
76
08
73
12
7F
6E
64
0D
6D
1B
00
7D
78
7B
7F
64
6E
7E
67
14
68
31
11
29
75
0B
13
7F
03
7A
28
62
7C
13
6A
01
56
09
06
0E
02
23
0D
12
7F
00
77
77
1B
30
5A
05
6B
67
76
22
69
70
03
0A
20
06
67
23
74
01
0B
51
08
09
6A
7A
19
7C
78
11
0A
71
7C
7D
0B
06
76
07
78
7C
05
76
71
03
74
15
01
0B
6D
1F
7A
71
18
7F
79
18
7D
68
74
58
0C
73
0E
04
03
07
5B
6C
02
1F
04
7D
04
20
65
08
15
6C
19
6D
7B
6F
16
1B
73
7B
5D
72
5F
6B
50
34
5F
10
52
7B
66
04
17
02
7F
0A
6A
25
19
24
79
1C
61
0D
0F
79
7B
18
2C
22
5D
5F
64
6A
24
7D
69
75
04
7B
23
58
0F
70
20
09
55
69
11
68
16
0E
70
72
76
7B
19
7F
7A
7F
02
68
73
6A
08
7E
10
10
14
11
13
65
07
6B
73
59
02
05
63
66
7D
69
7A
53
03
77
58
20
7F
2A
16
7C
72
72
05
71
0C
25
7E
00
03
4D
7B
6E
18
7D
77
0B
5A
06
0C
1B
1D
1A
6D
27
63
6A
76
75
03
7C
11
6B
04
0A
1A
06
06
6B
5B
7B
7E
13
65
17
63
0A
1D
67
19
75
14
6A
69
7D
0F
12
6F
1A
76
0D
11
07
7E
76
1B
11
6C
75
09
72
0C
7F
78
15
7B
17
7E
5E
07
05
00
16
19
13
7A
6A
09
02
11
19
0E
17
29
75
0D
77
6B
7E
1E
7E
7C
03
01
68
78
02
6D
13
76
7F
7E
61
2A
75
7B
0B
32
02
5F
61
73
16
63
78
0A
7E
67
0F
68
76
24
64
77
06
21
79
6E
51
74
76
2C
10
64
6A
78
09
03
6B
1D
29
72
06
05
09
6D
78
19
13
1F
0D
7C
69
13
02
78
08
05
73
51
04
55
03
5B
24
23
10
6F
7B
09
04
0D
73
7E
07
6C
20
05
72
77
77
69
77
2A
70
1A
03
7B
11
02
19
66
7F
00
03
75
75
11
0C
04
0B
04
1E
7F
6C
74
5A
7E
69
6F
13
7A
77
06
60
6C
05
14
08
0F
0D
68
18
65
0D
01
7B
68
68
78
14
2A
79
6B
03
11
5C
7C
6E
14
14
0C
66
7D
00
62
23
69
59
71
6F
13
19
08
0E
0A
5A
7F
15
15
12
0D
0B
53
15
69
73
0D
1A
04
79
79
7C
7C
0C
70
70
65
02
69
12
11
19
02
7F
03
19
77
12
7C
28
7E
0B
13
7B
16
6A
19
70
65
05
6B
6F
05
76
57
06
6C
78
77
6D
0B
11
1D
75
0B
08
1F
23
74
03
0B
19
7B
62
79
74
78
0F
2D
7A
6C
20
15
6E
07
77
02
77
60
77
71
70
16
09
29
1E
6B
03
7D
76
77
20
17
6E
0A
66
76
2C
0B
03
69
0A
65
7E
01
1A
6C
74
1E
65
75
17
79
1E
79
6C
6D
6D
02
14
07
02
0B
08
7A
75
6E
0E
18
7D
73
04
17
5B
72
1A
12
11
76
17
1A
10
6F
01
02
73
0E
7C
03
23
0D
12
7E
16
2B
5F
6D
6D
1E
03
14
7B
04
0C
0E
65
11
52
75
67
7F
0C
67
77
6F
79
69
0E
10
1C
18
06
14
67
22
0C
63
0E
7D
74
0C
03
65
00
79
15
0C
09
78
76
75
00
66
1B
0B
70
7A
73
09
00
74
05
0F
2A
7C
73
64
6F
63
06
76
72
75
75
7E
23
0D
0A
05
6E
11
60
66
05
16
77
07
60
7F
00
14
18
77
66
19
06
01
1D
5A
75
04
1C
03
0F
71
2E
65
65
03
7F
79
01
04
1A
6A
1C
68
71
73
70
6A
70
59
6E
64
6D
00
76
6E
6F
25
10
06
7B
7E
0C
78
76
00
14
06
0A
68
11
00
08
15
7C
13
02
14
07
79
78
64
0D
06
0D
14
75
24
15
24
1E
14
7C
6F
0F
03
05
69
69
11
03
13
72
67
6C
71
07
13
65
0D
7E
79
57
7D
0C
73
6C
12
00
78
71
06
74
16
0D
17
69
7B
67
13
06
6B
6B
7B
74
76
5E
12
00
7A
73
1B
7C
05
6E
7A
03
7D
00
01
11
0B
67
60
07
08
01
71
11
14
7E
68
67
05
09
73
0C
7F
12
08
01
16
76
7A
00
0B
75
76
12
69
09
01
73
1B
6F
7F
10
06
7E
76
01
10
76
7E
00
69
64
1A
04
66
74
17
01
73
01
70
07
79
77
78
7D
04
1A
7F
13
22
76
7C
0F
10
29
73
77
6B
07
7C
18
69
15
01
1D
68
05
6F
13
7E
18
7F
6F
68
62
03
05
0C
66
70
17
1A
09
6F
68
14
1D
11
6D
77
11
76
25
77
66
68
0A
14
67
06
08
01
6C
12
08
75
0A
72
18
19
1C
79
0B
00
73
06
0B
76
26
14
03
18
2A
6E
00
06
0C
18
24
0E
14
71
7C
67
06
10
11
6E
6E
02
6A
69
7B
65
0B
7D
63
12
6E
05
67
72
01
1A
79
0F
0E
0A
6B
7B
17
10
5E
24
74
77
12
11
04
10
0A
12
72
5F
7F
6A
0B
25
66
24
14
68
07
71
0E
72
00
7C
65
63
69
71
00
00
6E
19
02
7D
7C
02
02
75
03
13
1B
04
18
78
1A
6A
6A
00
04
78
79
09
03
0E
03
0B
72
11
03
03
0B
17
0B
73
14
07
60
0D
7F
6D
12
71
21
79
71
0B
0B
6E
79
0D
15
60
22
7D
78
23
74
65
01
16
13
6D
08
0E
06
04
7D
73
6E
6F
74
14
09
03
07
75
15
6E
06
79
5B
6C
6D
08
6E
6C
6D
71
69
1B
0C
06
0A
72
69
74
70
19
5B
12
72
04
10
6A
01
04
67
63
28
72
16
18
7E
23
6B
70
1C
77
76
69
0D
65
67
7D
11
07
1A
13
15
65
02
04
6A
0C
0E
7F
02
72
03
17
75
7B
02
75
6A
68
65
08
7C
79
71
73
6B
14
0E
70
04
00
0C
15
0C
12
03
68
65
18
04
6E
05
78
16
0C
77
75
0D
12
7E
02
77
70
24
0A
1A
05
76
03
1B
6F
79
77
03
05
12
63
0E
0B
7B
13
19
72
05
6F
63
16
67
19
6E
7E
5E
6D
16
7D
75
64
0D
13
71
08
69
08
6E
71
0B
07
6B
0C
7A
1C
6E
70
6D
02
74
6E
05
68
01
1B
1A
74
14
17
05
12
73
12
10
6E
07
77
6E
01
67
02
1E
02
6A
74
24
08
06
7D
01
7A
0E
66
16
09
77
74
16
67
72
0A
0D
7A
6F
07
79
11
6E
7B
03
13
09
75
66
6E
67
6A
1C
01
7E
6C
1E
13
71
7C
24
6F
20
63
1C
7B
74
77
1A
5E
02
19
10
10
17
0D
12
12
68
0A
0B
73
1F
7C
76
67
6C
6A
7D
05
7A
11
0F
71
68
6B
6A
0A
77
7E
0F
1E
70
75
07
09
05
7D
78
0A
05
7E
0E
6F
0F
7B
62
15
79
6A
02
10
05
09
6B
64
7C
6A
13
76
79
75
7C
16
78
71
68
67
73
7C
74
77
10
0F
12
06
11
7A
13
14
77
1D
7A
76
6C
12
19
19
66
03
6E
15
6E
6F
69
09
15
08
7B
12
7D
6A
7F
04
07
79
79
13
7C
01
7E
7A
74
1A
6C
00
0D
7C
05
13
14
0F
6D
6A
6B
67
66
7A
6D
7A
6E
1C
78
6A
05
03
0B
72
12
0D
6A
66
6F
10
7E
0C
7D
02
7E
7E
14
07
10
12
75
75
74
0F
13
67
7D
18
14
74
05
77
6B
65
06
71
04
7D
7D
03
0A
01
10
7D
14
79
68
0A
10
01
02
0D
7F
78
76
06
02
72
10
73
0D
74
7C
0B
17
0F
71
11
1B
7F
13
07
13
00
12
7E
09
04
64
0B
15
63
19
00
77
6C
66
0A
6F
75
1A
19
75
76
71
68
04
0D
78
67
67
18
12
75
77
0F
01
01
6F
0A
70
65
11
7D
72
02
1F
7F
6F
79
01
03
06
67
6D
01
15
6A
07
1A
76
02
6B
6C
79
67
20
75
0B
12
1B
0D
13
13
0C
6B
0D
09
76
01
6F
04
67
7D
0B
7B
63
19
6D
14
07
71
0B
66
79
7E
6B
19
60
79
70
02
63
0E
07
0B
0E
06
1A
76
74
0C
6A
16
78
75
7C
18
0A
63
7E
0D
7E
77
74
79
21
68
0C
0B
20
15
7D
15
07
6A
76
6F
1D
07
71
79
16
17
6B
7B
69
69
00
6F
15
16
06
05
14
7B
02
13
6E
13
69
06
14
12
0D
7B
7E
12
7E
72
16
73
79
68
74
09
07
07
18
73
19
04
13
08
11
0D
7A
09
03
67
18
63
0C
6E
12
75
10
00
6A
01
00
6C
63
0C
15
18
02
1B
60
00
18
05
72
16
69
1A
7E
7B
6F
02
12
79
73
7D
0E
75
68
16
0C
1C
74
68
60
10
00
14
77
01
76
09
0E
09
7C
15
7F
64
79
7B
12
09
6C
0C
63
7D
0E
0A
13
07
09
04
6C
17
0F
14
6A
72
09
7B
15
79
10
19
01
7A
0C
07
00
14
64
07
68
7A
6E
11
7B
76
6E
6C
7B
70
7F
0B
64
0D
76
00
17
7D
75
63
1C
7A
02
7E
13
15
66
7F
21
0A
69
09
7C
05
06
18
16
76
1B
02
12
71
06
7A
6F
79
67
16
7E
77
77
66
71
73
17
6C
08
14
6D
17
7A
7C
78
67
6B
13
0B
6A
0D
19
19
0E
7A
05
11
0C
74
10
64
0C
17
6E
6D
68
7F
63
12
16
0F
19
01
11
12
6A
10
6E
12
71
00
71
78
02
69
0F
65
6F
0E
0F
75
18
72
68
16
04
0E
77
00
0A
0D
03
6E
72
17
7D
72
19
0D
0A
6D
75
70
66
7E
79
67
0E
74
18
14
78
12
13
1F
6C
7E
7B
06
13
6D
71
70
72
0D
1A
16
0D
0A
7C
02
77
14
17
05
6F
15
0B
1C
08
16
7C
75
76
7C
66
05
01
6E
70
15
7C
76
0C
12
7C
05
6D
6F
10
77
0F
69
05
65
71
0F
73
11
74
6D
0F
76
6B
73
79
7A
7E
05
12
79
1A
7B
70
73
00
74
0C
15
7E
72
7A
0E
7F
71
19
22
02
7B
7A
6B
7C
6B
70
60
18
75
64
77
00
7B
0A
04
7C
1B
6C
6F
76
7B
6F
12
11
69
6E
00
02
75
77
15
18
65
00
79
63
0D
7B
0A
05
7D
70
0B
68
7D
00
1A
7D
70
6A
7A
7B
71
0F
03
15
03
7E
63
0C
12
7A
1A
0C
19
70
16
13
12
0A
76
17
13
6E
79
19
0F
76
13
24
17
7A
0E
01
09
04
77
71
01
5F
10
65
0D
68
7C
01
68
72
6A
13
6A
66
7A
1D
09
74
1C
66
6A
16
76
0A
15
06
07
64
60
72
12
6A
09
7B
69
7A
77
25
05
10
10
11
11
7B
06
73
03
78
7F
05
71
7A
6D
0F
7C
79
0A
09
0B
0B
0C
07
7C
04
7E
01
0C
01
12
74
02
0C
6A
05
79
0F
07
05
09
1F
7E
0B
13
7A
7E
09
00
05
15
6E
12
77
13
7A
7F
17
1A
03
08
7B
6F
1A
73
05
07
6A
0F
08
00
1C
7E
7C
74
12
0D
79
75
7B
72
20
74
14
04
7C
0A
6D
7F
64
6A
6E
0C
6F
1B
03
7D
0B
15
71
11
04
67
08
1C
76
15
7B
6F
75
69
64
68
3B
00
21
68
7C
01
7A
74
66
06
6C
0D
07
66
12
7C
6E
6B
65
16
74
1B
00
0B
6B
0D
14
10
2F
7A
7C
0F
78
02
0C
72
2F
76
12
18
79
77
6F
53
7F
07
68
67
6A
68
1C
70
73
72
58
18
07
75
0E
70
1C
7B
05
64
0E
7E
07
7F
77
20
13
73
0B
07
7F
0F
17
17
66
60
7E
11
59
06
6B
72
05
70
0E
76
71
1D
70
19
0F
77
1C
05
09
0B
13
6A
68
78
66
02
78
28
75
17
4C
09
09
04
18
6F
17
0D
6F
0F
07
04
01
09
12
13
15
02
16
6F
09
1C
07
00
61
72
67
76
05
14
04
14
6E
10
16
79
02
16
6A
13
6A
5E
6E
14
6C
68
7E
0B
07
16
0E
07
13
0D
17
47
10
7C
7A
05
67
75
7D
68
68
6C
74
65
01
79
76
7A
04
17
05
7B
6F
6E
00
1B
19
66
7C
29
64
1D
66
19
79
6D
05
71
37
72
07
12
07
54
79
68
5C
14
0B
21
71
74
00
25
63
70
64
2B
19
0F
26
16
06
68
77
07
68
56
5A
75
61
2D
6B
03
53
07
06
6C
0F
0A
7B
18
15
13
01
21
06
0F
6B
0D
72
73
08
76
01
0A
62
78
78
03
1C
08
01
1D
6B
6A
06
0E
03
00
13
2E
6C
04
6F
6B
04
03
67
7C
77
17
24
78
6E
75
6D
0C
1F
79
0E
66
7C
16
66
20
1A
66
18
75
67
68
0D
7C
19
7F
1D
10
78
6A
08
59
08
20
04
1F
14
27
0C
07
13
0B
77
75
1F
11
6F
06
7A
74
7D
6A
00
79
5A
6D
0A
1E
79
1E
66
2F
6C
13
6F
65
02
6E
08
11
78
7B
68
10
70
0A
60
0F
66
17
54
6F
77
65
10
75
71
11
04
7C
07
7E
11
02
14
1D
77
68
08
02
11
10
00
1D
06
6E
7F
0B
14
69
0D
7F
65
15
11
0D
6D
69
10
31
78
0B
16
6E
00
03
78
77
74
6E
23
7E
7B
21
0A
6C
1E
17
6B
64
04
16
78
7C
77
75
7D
0B
05
5B
03
7F
11
07
2E
6E
79
5C
7B
72
60
28
1B
22
16
09
0C
0E
10
62
76
21
28
11
7C
7A
12
16
0E
79
79
7E
59
7A
7B
74
13
0F
67
2A
72
70
06
69
76
65
00
7B
65
71
07
71
5A
62
7F
75
76
18
5E
15
60
1C
28
64
06
68
73
0A
6F
12
05
05
0D
17
58
05
64
0D
62
0E
2E
1C
08
7C
05
0E
14
70
6C
06
7F
63
7A
7B
66
09
74
31
03
00
73
53
72
7F
17
6F
7F
78
1F
7B
7F
02
6F
15
24
21
6A
69
11
6D
09
1B
19
6E
1B
0A
04
66
76
19
19
6B
12
78
6E
7E
05
74
65
05
65
0D
12
2B
0C
55
0F
0E
05
7E
0C
18
70
67
02
13
14
1D
74
68
51
17
01
7F
21
1C
6D
11
71
6F
19
06
72
14
73
10
69
6E
77
09
52
6F
63
10
79
7C
70
77
67
0A
08
0D
16
6E
16
01
72
6B
57
05
76
71
5A
7F
0E
0A
00
72
27
02
24
70
72
6D
2B
29
72
0B
6D
70
72
58
65
06
72
1D
2C
25
77
03
6B
70
17
0A
18
70
7F
6C
73
6B
74
03
16
79
07
1F
09
17
70
19
6F
14
67
0A
6D
69
0A
09
08
6C
0A
66
70
1C
75
10
23
5E
68
6F
11
7D
0D
5F
00
21
12
09
79
71
06
01
19
06
74
17
79
69
5A
6A
09
16
61
13
16
15
0C
0E
79
12
19
72
58
7F
0D
74
05
1D
02
6D
0A
01
0C
7F
7A
28
12
10
1F
07
72
69
04
67
15
57
7D
5C
6E
7F
6E
17
04
69
6B
6D
6A
71
7C
77
01
0E
05
27
71
10
10
0D
72
07
19
78
05
78
11
74
19
1C
66
0B
6D
0D
06
19
66
7D
69
09
0B
17
19
12
1A
19
00
05
0D
06
65
75
6D
13
0F
23
73
7F
02
01
59
5E
78
1E
7C
05
0B
5E
73
77
67
05
0D
61
5D
21
7D
7B
05
18
58
24
7B
76
0E
1C
73
68
70
74
74
71
6C
7D
0D
70
15
1A
13
14
74
01
7A
75
6F
03
16
12
69
16
7F
0B
2E
02
6C
7A
7E
01
16
6A
7E
0F
75
70
6C
51
0F
59
1A
10
12
74
07
73
5E
10
07
16
1A
04
19
6D
0F
08
13
06
69
6B
72
09
07
7C
1D
77
20
77
13
73
18
11
0A
6A
1A
6A
06
76
75
74
12
6D
68
30
02
24
01
6D
14
2D
6B
7B
79
6C
6B
1E
0E
70
6A
05
7F
71
6C
01
01
78
0F
55
69
12
70
16
05
71
6E
7F
11
68
77
74
7F
77
03
01
23
0A
04
18
15
0D
04
7D
14
0F
0C
1D
6E
10
16
77
01
18
6B
6A
19
77
69
0F
74
10
12
6E
12
71
0B
03
23
5F
77
11
08
09
17
06
05
75
75
74
73
0A
0B
78
7D
5E
7E
0F
73
0B
04
67
1D
75
05
1E
76
13
6A
07
10
64
7E
03
14
0C
25
77
7D
6B
72
16
03
6D
04
11
0F
66
74
76
0E
14
79
2F
02
73
08
71
68
0C
16
10
66
7C
16
02
08
09
76
72
7E
57
79
19
0D
08
18
0B
70
7E
02
00
0D
15
07
7F
0C
16
12
15
5F
12
75
74
72
7C
76
00
6D
07
07
71
62
1F
11
0E
6B
60
69
71
67
79
65
6B
05
7A
09
70
6E
6B
0E
78
03
04
7E
70
14
0F
09
6E
7D
15
0E
69
75
7E
1B
73
04
67
78
09
0E
6E
5B
73
6D
13
17
17
07
71
14
6C
66
77
19
6A
7E
03
04
08
6F
67
02
23
14
04
66
14
07
6F
1E
7F
0C
7B
7C
0F
6B
6D
12
12
70
7E
13
11
1C
2A
7F
67
76
79
06
75
5F
78
7F
7C
18
69
09
78
04
65
14
7D
75
6A
0C
21
09
12
7B
1F
77
14
14
6B
7B
0E
1A
06
07
29
08
08
14
7A
75
7F
0A
09
01
78
10
69
12
63
13
66
6E
0D
6A
78
09
6C
7C
61
67
0F
0F
06
79
6C
08
14
06
06
72
01
64
02
18
6D
11
74
1D
70
15
75
79
5C
5C
06
67
08
70
1F
27
76
0E
16
6C
11
66
7C
76
01
70
72
61
64
70
04
01
0C
08
01
0A
0C
75
79
6E
5F
19
1F
6A
65
01
07
08
10
79
0D
0B
1A
0A
07
03
08
11
24
01
74
17
69
18
78
69
14
73
59
00
1D
6A
67
7E
00
0F
24
7D
78
0B
7F
6A
65
73
76
01
72
14
1E
7E
7A
19
73
00
12
03
7B
04
0B
07
01
6B
0C
65
12
65
07
69
65
13
5E
6D
7B
08
18
12
5F
70
5C
1B
18
00
78
66
75
66
0F
72
10
0B
73
12
0D
6B
15
12
78
02
03
0A
7E
08
09
28
04
71
10
7B
1D
7F
76
0A
65
79
71
17
75
15
7A
17
0F
68
1A
18
17
18
07
0C
73
0C
7C
0B
69
1C
7A
68
09
16
07
79
72
69
75
7E
69
16
1C
0D
04
6C
68
07
74
5C
71
17
7F
1C
73
0E
16
6E
21
6C
13
14
20
67
04
01
73
70
25
02
0E
72
07
70
78
73
69
7A
78
76
71
19
17
65
7B
17
14
07
72
6B
6A
10
0A
65
02
1A
01
0E
6C
0D
6E
07
0F
19
6C
0E
03
09
78
64
14
6B
6E
74
76
79
07
1B
7A
6E
6F
61
6C
62
0D
1C
0C
1D
05
71
1C
07
11
7A
6C
00
75
70
0A
73
74
7A
1F
67
6E
68
24
16
67
0A
0C
15
04
7D
0A
7E
6B
09
08
76
77
7D
71
0E
09
0C
1A
02
6B
76
6D
10
03
69
02
17
03
73
1C
78
65
00
09
7B
72
7C
7B
0D
08
6F
0B
65
78
08
07
08
74
04
03
18
1E
14
0B
04
6B
09
75
63
7A
09
7E
15
5E
71
0F
78
11
5E
18
7F
64
08
03
06
5B
62
6F
0E
68
07
17
74
6A
77
64
13
78
03
76
72
74
7D
18
09
72
08
7F
0E
17
09
11
11
70
79
79
11
64
69
0D
63
75
6B
0E
04
76
15
75
0A
0C
0D
09
7A
03
7C
74
6C
10
1C
00
7F
01
0C
0E
0B
6E
19
10
16
78
70
14
73
19
10
65
7B
61
78
7D
76
77
7B
70
12
00
78
7D
68
17
03
70
11
16
17
14
73
7B
66
79
73
7D
11
66
02
11
12
01
16
18
64
70
00
7C
7F
15
07
77
15
12
0D
0C
75
74
7E
76
18
76
0A
03
7E
6D
79
79
78
67
14
02
0E
65
7A
0C
06
70
1A
63
6E
13
64
1D
6C
74
7E
7C
04
10
07
6B
07
72
73
6E
68
05
7A
12
12
07
72
11
6E
68
05
74
7C
09
7D
73
07
07
18
1B
16
0D
11
73
7A
6E
18
74
65
0A
0D
07
0C
10
10
6E
18
63
7B
11
0F
16
01
06
65
17
74
07
0F
6B
72
7D
08
7A
05
10
71
75
71
0B
6C
12
0B
17
65
0E
7A
71
0D
7D
6F
77
01
72
13
04
09
73
6B
11
67
0A
72
6F
7B
02
6F
77
17
76
6B
6E
0E
13
73
01
0E
11
0E
0C
75
0B
6B
75
78
18
70
12
74
0D
7E
07
65
68
7D
1B
04
68
09
7D
0D
0C
6E
5F
11
13
7D
79
10
68
07
68
77
76
6E
0E
7D
76
03
7E
68
70
7D
71
0D
7D
0D
0A
71
19
02
7B
18
73
6A
71
0F
70
01
6A
6A
76
0C
0F
6F
0F
04
7A
00
0F
7F
6C
76
12
0F
68
66
6B
72
02
6E
13
69
01
11
0C
71
1A
6A
19
7B
1A
0F
6D
09
0A
1D
10
09
0C
65
19
1F
04
09
7D
6B
6A
7F
75
77
10
71
1A
78
6F
0D
65
6B
6A
0B
66
77
75
07
70
70
77
75
00
04
70
0F
02
78
12
79
74
68
76
69
18
7F
0B
11
76
73
7C
02
7B
11
6C
18
02
62
16
0D
64
65
6A
03
72
6C
73
0A
0D
7F
19
09
18
13
0A
65
04
6A
67
77
6C
64
03
17
0A
73
11
19
08
06
6E
75
10
70
72
04
6E
6B
04
7F
7E
7B
72
09
0C
01
74
6D
18
0F
78
6F
0D
64
08
7C
1C
6E
67
0E
6C
13
7E
72
07
0F
67
77
0F
7E
0F
77
0C
10
0D
72
6A
70
6D
7E
0F
05
0B
76
7B
66
01
17
76
67
16
7A
06
15
7C
06
6A
0B
7F
0B
7A
11
0A
16
07
07
09
0A
02
68
7F
09
7A
0E
6E
08
7C
19
7D
0D
70
7E
12
77
6E
13
6D
7B
17
6C
0C
01
76
18
09
74
00
1B
12
10
11
0D
7F
74
6E
6E
01
07
79
0C
0F
6A
11
7E
0A
7F
0D
05
00
7B
1A
70
13
05
7F
0D
17
0B
78
19
6C
03
6A
12
6F
11
65
09
76
1A
09
78
6C
0E
71
73
7A
7F
6E
11
7C
7D
13
15
02
76
71
6E
7C
08
06
79
6D
7F
14
0B
11
78
1E
7C
00
0F
76
04
79
1B
78
15
77
22
13
01
63
69
0E
09
09
18
0E
74
06
6C
0C
69
0A
07
07
79
07
04
0F
70
78
12
09
09
13
08
0A
15
77
07
05
1B
1D
14
6C
0A
15
15
70
13
15
70
14
7B
22
69
10
0C
6A
69
69
70
5E
08
70
73
7B
07
73
22
7D
6E
0E
78
70
6C
62
14
09
6B
6B
6C
7B
0E
6A
6B
70
70
75
06
12
08
00
7C
09
75
08
68
06
10
13
68
76
6B
15
6F
7B
74
7B
65
1D
1B
7F
7C
7E
74
7B
01
66
18
7D
05
13
10
7C
0F
1B
69
07
0B
78
1A
68
76
01
25
03
01
73
6C
7E
16
66
13
09
68
1E
15
74
7A
05
14
7A
18
74
79
01
79
13
1D
03
12
1B
16
0C
0E
79
07
71
7D
6A
6B
0B
62
74
03
66
02
19
07
66
7A
18
75
6A
1E
04
0D
04
6B
5D
70
6C
02
78
64
02
71
1A
68
14
76
7B
7F
03
6F
79
08
7E
63
0A
68
11
17
79
11
74
67
6B
71
05
26
11
70
0B
6C
04
6A
11
64
22
72
08
75
18
10
0A
66
19
7E
7D
1B
07
1A
74
7D
7A
14
70
66
74
6C
6C
77
7D
0A
70
0B
7C
04
6E
16
18
24
02
16
78
6E
6E
01
7A
02
65
61
0D
7B
16
60
08
63
0E
66
7D
05
78
67
1F
62
04
13
76
19
17
7F
15
0D
77
0C
0B
1A
7C
5B
71
72
0A
04
0C
01
19
6F
00
7E
16
70
1A
6E
08
02
7E
65
70
7C
65
0A
6B
03
10
7F
16
73
66
25
50
7B
60
7A
65
14
64
69
6F
1C
78
11
09
75
73
0D
74
73
29
01
0B
75
7F
02
1C
0E
00
7F
7B
70
17
6B
11
7D
6B
08
7B
13
68
65
12
78
5D
0E
12
79
05
03
6C
70
6B
70
6A
12
0B
79
25
0D
18
0D
02
7F
0C
77
07
09
7C
59
17
69
29
00
61
02
66
61
75
11
08
0E
69
06
18
0C
23
0D
6B
33
06
04
73
23
6C
5D
00
04
07
71
65
4A
04
63
7F
69
75
03
1D
0D
71
0F
6E
76
79
19
15
6B
06
01
0E
2C
71
73
6B
71
24
74
0D
0E
5F
09
6E
6B
78
73
57
6F
6F
76
19
6E
77
14
09
7C
65
7D
7A
11
09
11
7F
0D
01
18
09
6E
08
04
32
79
06
01
6E
78
72
19
09
72
77
11
65
6B
6C
36
7A
7C
23
70
6A
01
12
18
17
74
16
11
11
0A
66
72
7F
09
0A
35
07
6E
09
6F
7D
2F
68
1D
68
61
72
00
76
71
05
7F
5C
17
10
06
6F
7C
0C
14
17
06
0F
7F
6C
08
0A
1B
75
01
73
05
02
6A
16
04
2D
12
04
15
09
63
6A
7E
7F
65
12
69
19
65
1B
78
0D
65
7D
11
6E
5A
1C
7E
08
01
6D
04
6E
0F
12
6D
6E
07
01
0B
6E
02
02
13
13
08
6C
06
60
71
15
71
15
09
58
0D
09
14
6C
7E
76
07
68
11
00
74
7D
69
7E
00
12
34
63
13
73
0B
71
65
17
0F
7A
71
0B
78
16
0F
66
70
14
0C
71
0D
70
21
08
1E
70
0C
10
1D
61
00
04
12
65
00
19
0A
17
6E
6E
71
72
79
67
64
6B
12
13
60
14
61
6B
74
06
08
68
17
02
13
6B
6A
25
01
03
13
12
71
07
70
05
18
19
7B
66
71
17
0D
18
7C
0D
77
7C
0F
06
6D
72
77
74
11
6F
19
7B
71
6E
04
7E
78
08
03
73
79
06
11
78
01
66
04
19
15
0F
15
00
7C
22
64
79
03
62
01
0E
13
03
19
7A
68
5C
12
7F
19
7C
76
0C
6E
00
06
14
67
73
7E
78
01
10
0D
79
09
18
1B
64
10
0D
7A
0D
22
6C
15
0D
7C
17
75
04
73
14
73
10
15
66
12
69
03
5D
61
63
00
0B
64
77
74
02
2A
08
0E
7A
07
0F
0F
0C
0D
6D
65
65
7B
6F
6B
12
18
26
7F
76
13
7E
78
74
7B
74
63
0D
6D
02
71
78
02
0A
77
12
15
77
6D
69
0E
14
73
09
7A
17
10
67
64
16
6E
01
75
0B
66
70
0D
7B
19
03
17
22
69
67
69
03
78
67
74
66
06
7B
6F
7D
00
7B
15
12
6C
7E
74
1C
64
77
7D
16
01
05
08
11
07
18
6E
6D
77
0E
65
02
5D
06
6A
76
14
70
0B
29
0B
18
1C
72
7C
7A
02
6A
10
10
60
03
5A
76
00
75
69
72
54
65
6A
6A
2A
75
69
78
2C
06
00
0E
74
09
79
73
72
76
62
1B
18
15
7E
16
74
01
77
77
78
0F
7D
6F
6A
5B
67
75
32
00
12
02
05
7F
6C
6B
07
0B
7B
13
66
1C
74
7C
15
7A
5B
19
09
7D
04
76
11
6E
15
06
0A
0A
0C
06
6F
14
07
11
5B
77
6C
10
0B
0F
67
7B
0A
18
50
06
7B
76
6A
0F
7A
7C
7C
10
06
28
7B
74
75
0A
11
18
74
16
6B
03
14
74
0E
7A
09
0E
04
26
7D
6C
77
03
03
69
65
6B
66
56
01
0E
04
11
00
05
78
02
05
6A
1B
21
73
11
7A
25
73
18
6B
65
64
08
12
00
70
75
0A
1B
6B
7C
69
13
04
78
69
7E
7C
62
14
03
18
6E
20
05
17
00
73
08
7F
02
69
76
6E
07
6C
14
77
16
00
10
6E
02
6F
18
09
78
15
72
65
5C
6E
7B
18
68
0D
08
64
01
7C
71
06
7E
7B
04
7C
17
6A
0D
58
68
08
70
05
71
79
07
71
0D
76
20
00
02
77
67
78
04
79
01
65
08
12
7F
0E
15
7B
69
76
16
0E
6A
08
12
7B
18
12
68
70
63
6A
14
00
71
6A
71
5E
65
75
76
76
02
19
10
76
1C
6C
2A
0C
12
68
63
0B
7E
68
6D
1A
1E
03
6E
10
0E
04
0A
6B
0A
0B
6A
7A
0E
06
0C
07
27
77
18
68
12
76
07
03
04
12
13
18
08
7B
76
79
08
12
65
7C
1B
12
02
73
6E
09
13
0C
6F
0A
00
10
16
19
0F
63
0E
02
10
01
08
1E
20
68
72
12
6A
66
23
10
78
12
01
6A
5C
77
7A
6D
0A
7B
72
15
75
66
70
10
12
07
02
28
6E
76
58
11
13
19
63
0C
7B
12
6E
0A
54
26
7F
1C
74
6D
04
6A
7B
5C
00
60
78
0F
14
1C
0F
25
18
76
1A
71
03
7E
79
0C
0B
1B
5F
1F
0C
0F
1F
7D
78
7B
0B
6A
18
0E
70
75
0F
10
11
19
17
72
71
68
71
03
03
07
04
6F
07
1A
1B
58
75
6C
67
0C
06
09
01
01
76
79
61
15
6A
7D
24
66
03
19
6F
14
16
05
76
57
7B
77
7F
0E
1C
13
03
1A
14
66
7A
75
24
77
1B
6B
01
04
5E
76
03
57
09
6B
11
74
68
72
0E
6A
0E
21
5A
67
5D
7C
0F
13
06
06
02
15
18
15
79
21
74
6E
60
6F
76
72
6F
5C
69
7D
26
70
7E
24
65
24
1D
63
25
72
77
64
7B
19
79
60
71
1D
23
6A
7B
0E
79
65
0A
07
15
14
7A
18
7B
04
0A
15
17
02
12
05
77
17
0A
03
17
6A
07
72
0C
59
17
76
18
1D
0C
0F
70
7D
76
21
6D
7B
09
0F
06
15
12
72
0D
09
06
15
10
5A
72
79
03
19
10
10
17
6B
69
70
22
5B
11
18
03
09
68
0B
12
69
16
04
07
7F
03
0F
04
1B
09
66
00
79
5D
69
6A
07
20
0E
7B
6A
7C
03
7D
0B
57
73
73
76
6D
16
10
16
63
7C
08
71
13
76
72
1E
79
75
08
72
2C
75
66
67
05
6E
7A
06
00
7C
7D
10
18
05
0F
05
7B
2A
04
5E
01
6E
03
72
7E
17
24
67
18
70
7E
00
08
70
66
6F
6F
66
01
6D
65
11
68
74
01
5F
71
6B
73
1D
0A
69
65
7F
26
03
19
0F
14
0F
64
00
0B
60
0F
15
06
17
21
09
17
06
0A
7C
19
64
28
10
11
15
71
6B
05
6E
0F
63
01
78
6E
68
79
09
7A
03
06
04
5F
7F
64
10
03
7E
17
74
01
14
0B
0B
06
22
79
0B
66
19
68
73
5E
6A
15
65
1F
1F
0F
12
6F
18
02
70
75
63
03
0C
71
10
10
66
62
7F
00
1A
09
79
03
09
0B
20
7F
6D
57
1A
77
6D
73
17
20
03
04
6D
64
0D
1D
74
65
01
09
6F
00
5E
71
08
04
06
79
02
18
02
60
74
0F
0A
0A
0A
00
02
17
68
04
14
7F
0D
07
6F
1D
0F
6F
13
13
1B
7F
7D
6E
71
22
75
77
7D
73
68
5E
10
17
64
07
73
0F
0C
00
00
08
0B
0C
0F
04
16
76
6E
78
08
1C
09
70
76
12
73
7B
7E
07
24
01
13
68
73
08
01
01
7E
0B
5D
77
1E
70
73
77
74
03
16
0F
02
05
03
19
06
05
62
05
6F
24
7D
74
64
26
6C
71
73
17
0B
7E
04
7D
0C
0F
1A
74
13
6D
0C
18
79
04
6F
11
71
6F
72
18
5E
00
18
7A
1E
74
6F
01
6F
7B
00
05
76
06
7B
76
7B
16
68
0B
7E
0F
76
7B
77
15
7B
05
22
01
1A
0D
01
78
69
1E
69
20
7C
05
6C
5F
02
14
01
0E
72
75
08
6B
74
6C
1A
07
7D
77
19
01
12
00
08
04
70
05
6B
14
19
72
7B
08
0C
7C
6D
05
0F
14
7C
06
0D
64
69
7D
6E
09
11
03
1C
7E
02
03
0D
04
0D
1D
19
67
6E
7E
09
1D
6A
7A
0D
7B
69
13
73
13
69
7E
70
0B
73
02
13
14
0F
78
19
77
7E
74
6C
65
17
7B
11
78
07
73
68
05
06
79
03
0A
7A
0B
1B
7F
00
0D
70
1C
16
1D
0E
00
15
6D
07
70
11
19
03
19
7E
17
68
16
7F
65
69
6F
16
00
14
75
79
7D
02
06
15
06
12
14
13
0D
12
77
10
16
04
7F
79
08
6F
19
06
14
0D
63
05
03
7F
1A
6C
09
15
18
13
6F
03
0F
74
68
08
70
6F
1B
0E
0E
0D
74
07
67
7E
79
14
7F
71
74
05
01
69
10
04
10
08
02
7E
6A
15
17
76
6A
00
70
75
7A
6B
19
09
7F
0D
75
6A
06
01
7D
7B
1A
68
05
16
6C
62
7B
08
08
7E
69
05
63
73
0E
03
16
0B
09
09
6E
03
0E
00
6D
03
6C
1D
65
15
79
17
66
19
10
05
7E
6F
6B
11
1D
05
0B
7C
02
03
09
03
05
00
71
6B
7B
7F
67
68
19
75
66
7A
09
11
77
69
79
0F
7C
7F
00
7F
11
71
74
00
0A
16
76
10
01
75
72
07
17
67
78
67
73
66
78
69
6A
6C
19
0A
0E
71
77
18
7F
17
0E
6A
7E
11
02
16
77
65
75
67
05
01
72
09
0C
70
08
19
6C
7A
0B
6D
02
6A
65
7E
7D
15
08
7B
07
16
74
6B
18
71
78
08
70
11
7B
14
79
75
12
71
01
6E
17
72
0D
0E
16
6D
69
17
7A
69
7C
0E
17
0B
17
09
19
6D
05
7B
17
02
1F
6C
0A
0F
7D
07
00
0D
14
11
0D
07
0D
13
08
7B
0E
7D
0D
13
12
12
7F
78
71
0B
6E
06
0B
65
07
04
7D
7A
0B
14
74
1B
69
17
0A
77
08
67
1F
75
06
01
76
10
7F
0E
09
0D
08
18
03
71
14
79
11
74
7C
18
73
6B
13
6D
0B
00
68
70
7A
01
07
74
04
13
17
06
0B
02
6D
74
1E
7D
65
69
0C
0D
78
0C
01
7C
68
7E
01
08
6D
11
06
72
0C
11
6F
62
1B
79
17
72
6D
10
67
03
02
6D
6B
13
00
77
70
6E
14
74
63
75
08
18
0E
66
74
7D
00
09
71
0F
67
6E
05
09
11
00
79
1B
64
00
73
08
08
03
0F
11
73
00
15
17
7E
0D
7D
0A
77
79
1F
13
17
09
0B
65
16
1D
06
6C
18
0D
75
03
71
79
02
00
0F
7D
6D
04
13
12
0B
19
75
04
72
7A
10
6A
0E
0C
7F
01
0F
1F
1B
14
72
12
1A
19
0A
70
64
06
0C
6C
1B
06
7E
14
64
6E
61
70
16
06
67
0D
02
7E
7B
7F
7D
07
1B
73
0B
6F
19
74
18
0C
06
70
77
14
71
7A
0A
09
75
1C
16
02
70
06
65
70
0F
12
06
05
71
19
07
75
09
76
09
76
72
02
77
11
14
6D
64
09
1B
74
70
6C
76
09
6C
7F
6A
7B
71
76
09
67
04
05
74
6C
71
6D
02
76
70
02
0D
18
69
6D
06
67
07
68
03
0F
03
06
7C
1A
78
0F
15
0A
18
05
09
69
6E
69
12
7D
12
76
05
19
12
13
70
77
78
0B
6D
0C
72
07
11
71
20
65
78
0E
03
67
0C
6B
75
65
6D
03
72
77
7E
6A
72
7E
23
74
06
66
0B
74
14
08
74
15
04
79
6C
18
7F
03
77
69
0C
74
11
71
15
12
76
17
1A
08
09
6D
0B
7E
6B
01
71
02
75
15
6A
7F
15
0D
76
18
79
5D
07
01
75
77
02
5F
6B
73
65
6A
04
75
1A
09
09
11
19
67
12
0E
03
6E
67
04
69
08
62
7C
14
0B
62
6B
19
18
0B
22
22
75
02
7D
12
0B
75
77
6A
7E
64
72
04
6C
65
0E
16
13
06
7D
7E
78
74
72
6C
6D
13
0C
21
08
17
70
71
05
5A
6F
6B
17
17
14
7A
05
58
66
18
7F
10
7B
1C
6C
7D
68
1D
78
07
7A
0C
18
0F
0B
69
0E
13
19
01
14
6A
00
10
00
17
25
6A
7E
0A
79
75
16
7B
7E
6A
21
07
7A
63
78
04
0C
0B
76
18
7F
0B
64
0F
2B
65
4E
74
7A
00
13
72
66
05
0B
17
78
7F
05
02
18
05
1A
75
0C
6F
6F
1E
66
63
52
03
05
59
0C
76
12
27
03
7F
04
04
72
74
7F
05
6F
0C
0E
65
5F
11
03
1C
07
6A
0B
16
06
72
0D
14
6C
6F
0F
58
05
7B
02
74
69
7A
25
0C
0F
01
08
2F
1A
74
13
0B
07
18
00
71
16
7A
13
28
70
0A
72
03
75
1B
0E
75
08
03
6C
63
03
00
7F
10
0D
0E
70
02
7F
75
0E
06
76
27
7B
7F
20
6D
73
08
78
12
29
1B
17
7B
77
0E
2A
09
32
58
7B
69
65
67
14
11
7C
75
0D
72
7F
7C
10
17
7D
03
16
03
6A
4F
5A
14
14
73
53
5F
6E
6C
7D
05
7D
21
07
73
67
66
7B
01
7A
21
02
78
74
6E
6A
6C
68
77
74
7A
14
7D
71
62
73
78
6E
0C
74
5B
02
0E
72
0E
10
1B
66
01
0C
77
5F
06
2B
6C
0E
7A
74
75
07
79
09
56
09
13
08
0A
0A
11
7B
01
1C
71
05
10
7B
5D
00
7A
10
69
67
5E
00
60
01
00
0B
0B
76
01
17
7A
10
7C
04
76
19
07
19
07
79
7A
1A
16
1B
7E
05
66
05
0F
15
71
09
7C
0B
6D
7E
7C
25
77
1A
02
73
1F
1B
6D
6A
50
5C
06
08
6C
6E
6B
66
4F
12
08
12
10
05
06
6C
53
00
6A
0B
21
7B
09
04
6E
09
05
65
76
0C
04
00
10
6D
6B
06
6C
78
74
15
7B
75
7B
18
7E
09
01
02
6D
08
19
68
04
0A
7B
71
15
0E
6D
69
05
10
57
71
21
66
69
74
78
69
1A
26
00
6C
7D
72
04
6E
6F
2C
15
01
06
78
6B
0B
7D
0D
74
6C
79
17
6D
76
17
73
06
73
7B
0B
7D
29
73
30
5F
08
15
10
72
74
01
0E
14
7E
78
05
70
15
01
71
11
16
6C
0D
7B
10
7D
57
68
07
72
13
00
64
04
03
65
12
04
0F
11
01
1A
77
59
6F
69
0F
20
04
7E
71
16
02
08
04
0E
7D
6A
68
7B
12
6F
7F
70
77
7D
77
67
7E
71
68
78
7F
19
60
78
03
73
60
0B
27
0C
69
79
24
19
7F
5E
79
58
6E
1E
6D
10
78
16
5A
19
79
23
74
0E
06
67
00
68
28
06
68
64
08
77
12
0D
0F
1D
0E
79
0D
68
0A
7F
12
0F
65
78
11
71
07
18
28
6F
29
7A
09
2A
7B
03
77
73
7E
07
70
06
04
73
67
60
0A
64
11
06
6C
76
6C
76
05
1F
07
65
6C
01
13
6A
68
08
78
1C
05
78
57
04
25
20
6C
0E
6C
62
7A
6F
65
7B
55
15
0D
7B
0E
70
02
04
70
09
65
13
03
04
17
65
78
69
7E
22
7E
08
14
79
62
02
70
1B
04
07
00
09
7B
09
6F
12
0C
0E
5B
6C
7E
02
79
74
0E
1D
02
0D
00
09
13
71
75
06
00
05
05
5E
00
0C
0F
0B
6D
0D
14
79
71
01
70
07
72
77
6C
07
75
71
0E
00
08
19
0D
12
7E
6A
0A
00
13
0E
7D
0C
77
66
6F
78
0D
06
18
02
60
6E
6A
71
20
07
17
03
01
09
18
5C
73
0D
07
02
6F
67
00
69
22
14
7D
00
12
0C
6F
00
07
1A
00
04
73
7D
18
08
19
10
68
16
6C
11
68
5A
0E
00
08
11
14
7D
7F
17
10
16
65
26
0F
2F
18
03
07
7A
17
09
19
02
79
76
07
0C
11
6F
0F
69
06
6D
77
79
6C
6D
66
6C
55
03
01
7E
73
03
13
1C
0B
27
6A
7D
65
09
70
69
65
18
67
05
6F
1E
6F
6C
1C
25
7D
0A
7D
7C
15
7A
7F
6E
16
69
79
00
63
76
0B
70
0D
64
04
6B
67
7A
02
0A
09
72
01
71
0A
2D
0B
63
0E
15
5C
14
03
19
7E
78
23
15
75
28
76
65
00
04
7C
0F
57
7B
7A
5F
6D
6D
1B
0B
0A
01
7C
7E
77
73
6D
7A
16
7B
19
7D
06
19
6A
02
6A
73
71
23
0D
12
02
04
7E
68
08
75
05
78
65
04
6E
6C
7A
69
09
1D
18
6B
06
16
6D
04
08
76
6F
03
79
7A
0C
26
10
78
69
05
71
73
10
66
77
66
7F
77
72
6D
6B
18
26
20
00
7F
07
17
15
75
7F
68
69
6D
19
54
79
68
19
12
05
66
76
05
54
63
7D
1D
01
74
7B
05
24
71
6F
03
7A
6F
76
06
68
6E
00
6D
17
18
10
73
7C
70
0B
15
16
7F
10
62
66
7A
17
7D
7C
28
14
7D
6D
79
78
17
00
7A
15
15
15
0C
78
75
6F
00
04
7C
0E
1D
7B
6B
09
65
18
07
08
18
7F
01
03
73
6D
0E
13
7A
5B
0D
0C
16
20
7D
77
75
0F
65
17
12
6B
15
02
12
11
75
02
66
78
71
73
69
0B
11
08
62
1A
04
7D
0C
24
6B
05
64
0D
16
7B
0E
7B
69
7E
05
06
56
79
75
01
0D
01
73
6A
72
74
18
75
18
1F
78
1A
7D
02
79
6B
16
07
06
06
06
65
7A
7F
7F
19
26
76
1A
65
1E
78
68
73
70
68
00
6C
05
11
7E
0B
10
14
17
04
04
19
0D
05
0B
17
00
7D
7B
5D
0F
18
12
73
58
5C
12
07
71
0D
77
19
07
09
1C
68
78
09
71
0B
7A
6C
16
57
74
67
1A
1A
29
79
67
0A
6E
0B
0C
7C
12
00
71
01
7A
12
17
01
0B
64
76
0D
75
79
03
14
00
6C
7F
26
66
13
79
7A
16
09
0B
71
06
69
02
7E
7B
12
5D
03
58
6F
6F
14
62
72
69
76
77
20
1D
7D
72
1E
1F
7A
25
11
6B
5A
5A
00
00
67
74
29
2C
79
75
11
09
78
76
02
65
02
02
08
0B
6E
6E
0D
7B
01
05
07
79
0F
23
0C
6A
7C
69
6C
12
61
0F
0B
07
78
01
73
12
02
04
72
0E
0F
0A
72
29
7A
1A
79
14
69
01
09
74
60
77
0C
10
09
1F
75
00
75
12
6E
07
75
0D
03
0E
0F
6D
7D
0E
7E
05
01
67
19
01
7F
0C
00
00
12
0A
0E
64
0A
70
08
09
7A
6C
6D
66
68
6E
7E
07
09
5E
14
04
6B
0E
63
69
4D
10
6B
20
09
1E
16
71
7C
01
75
7B
65
7C
74
01
7A
17
66
06
2D
16
77
07
16
1E
7A
73
77
66
6B
6D
72
1D
09
65
0F
7B
7F
0B
02
7C
67
78
79
11
0C
04
77
1A
09
79
0B
04
17
02
72
22
13
73
79
66
09
5C
66
04
04
04
05
10
11
66
6F
7A
6A
77
13
69
04
0A
04
00
61
05
04
78
78
20
66
27
70
58
0C
6D
77
6C
63
66
7C
68
67
5F
67
7C
7D
7C
7E
01
03
73
10
06
21
77
7E
02
66
03
67
68
02
57
0C
67
6B
04
0B
60
58
64
6A
03
70
04
28
77
7D
25
67
00
78
75
07
14
00
6A
70
07
7E
1F
18
78
66
7E
79
00
01
68
5F
79
7E
0C
6E
6A
7D
18
78
72
10
15
71
74
0E
10
64
7C
71
0A
5C
04
02
6A
1D
56
00
02
77
7A
16
0E
70
5F
08
17
05
76
0A
0B
08
60
0D
04
72
0A
73
7D
7D
7A
1A
0E
00
64
7C
03
79
15
18
1A
19
07
0B
12
19
78
62
65
77
7B
73
0E
6E
64
78
15
29
79
05
7A
66
03
72
7C
18
11
02
1A
02
06
05
73
1E
5D
7D
0D
00
7A
61
13
66
7C
14
1F
0E
0C
22
1D
62
05
7D
71
5F
1A
6B
0A
70
0E
11
0E
77
01
6E
12
79
65
21
17
00
62
04
72
18
7F
13
7A
12
63
10
05
05
15
6E
08
68
15
71
69
66
6E
70
6D
7A
73
7A
09
14
0E
0E
74
7B
07
02
12
7E
7D
73
71
6F
71
72
7D
7D
05
69
16
7E
01
10
6D
7B
13
71
75
5B
77
77
1F
7B
05
0C
7D
11
75
69
75
16
68
75
7F
17
5F
04
18
7C
5E
63
68
12
18
10
65
6F
02
03
7F
00
00
1D
6A
13
19
7D
0B
07
7D
6F
16
6C
07
04
0A
79
63
16
10
03
1B
75
08
19
7E
14
7F
1C
75
6B
69
0E
08
7E
7C
0F
6A
00
65
7E
73
6F
7F
7D
68
14
66
10
7C
76
73
76
6C
12
74
79
0F
79
72
67
66
11
01
02
78
7D
0A
00
08
0B
1E
7B
71
18
20
07
08
6C
19
63
7E
15
65
05
0F
76
17
03
70
1A
13
6B
73
0F
18
78
7E
11
16
68
76
16
16
7E
03
07
7C
75
74
08
7D
6F
0F
0F
7C
05
7F
08
7D
67
6F
7A
15
66
12
0A
7A
74
00
03
72
71
6C
71
72
02
7B
0E
00
75
0E
0A
08
70
0B
02
6C
18
18
17
02
06
6F
67
77
15
02
74
0C
0C
69
79
69
6A
69
6D
0D
06
7A
11
01
07
02
17
6A
16
6D
6D
78
15
73
71
64
75
6F
04
13
6B
08
0A
07
07
06
6F
68
7C
71
77
7C
75
69
7F
74
76
78
0F
01
0E
6D
06
13
09
6C
78
19
06
0B
75
03
77
6E
0A
08
12
7F
77
1F
72
15
77
77
76
16
12
74
1A
12
78
71
05
62
08
0C
6E
72
11
0C
00
14
11
6F
10
7E
08
07
65
08
07
6E
6A
0F
0B
16
75
74
05
7A
67
77
6C
0A
14
75
77
08
11
6E
76
15
6F
16
7E
0A
15
75
72
14
72
05
0B
05
05
14
0A
03
01
18
17
68
68
65
7A
66
03
65
09
75
70
16
68
15
07
6E
71
14
14
63
6D
01
7F
7D
07
10
7F
6A
65
10
04
7A
6C
13
0C
0C
1B
0D
7F
6A
7A
76
0C
05
7A
0A
00
04
6A
15
73
18
6D
13
69
1D
7A
08
00
10
16
08
7B
7B
15
73
19
04
6F
0D
17
6D
63
66
6A
08
77
04
08
05
09
67
69
67
04
7D
76
15
16
12
14
10
7C
16
11
79
66
7D
16
0B
6A
68
17
76
01
0D
73
75
6A
0B
1B
0C
66
09
17
14
1B
7B
6D
01
74
04
17
68
0C
11
7E
7D
7C
6E
03
73
71
7F
65
72
0C
07
14
08
08
13
74
79
6F
02
62
03
66
6D
05
0A
14
65
0A
14
78
1B
6C
7D
02
7D
66
20
06
07
63
70
19
6D
14
1A
0A
71
72
0F
65
71
16
12
03
17
69
6C
7E
11
73
00
7A
0F
7D
7A
09
19
79
63
74
7C
6E
05
19
6C
64
05
73
7E
14
6D
70
09
78
0F
74
13
01
17
20
01
7F
05
71
14
78
6F
7B
75
76
13
6D
69
78
14
0D
7E
7A
12
09
6D
0F
6E
02
10
1E
18
12
0C
06
7A
7A
1A
07
0F
68
7D
00
6A
0E
10
18
78
65
08
7D
16
76
69
08
7C
11
10
15
00
79
7E
66
01
6A
66
0E
13
77
0E
6A
06
77
20
7B
6F
74
65
7B
02
7D
71
05
0C
16
00
15
79
14
72
6E
04
65
00
6B
08
1A
10
13
7E
7F
10
69
00
67
75
78
11
0E
74
02
13
7E
7F
0B
6D
0F
0C
71
74
17
7B
6B
03
13
02
65
15
7E
67
74
00
13
12
76
15
15
64
76
69
18
02
76
04
72
7F
6A
0C
73
5F
75
74
6A
0F
6F
7E
6D
18
08
13
02
5E
03
75
18
74
6C
10
65
7C
71
1C
11
16
18
77
71
04
66
6C
13
07
14
74
19
65
09
08
7B
65
6F
7B
0F
74
14
10
01
09
71
00
62
06
72
16
7D
01
76
00
78
0E
6A
11
7E
12
12
71
00
00
19
18
18
6E
0E
73
1A
14
22
0C
0F
05
7E
71
6D
0B
01
08
10
10
79
04
12
1C
17
78
7F
7C
5D
74
01
6E
6B
03
69
06
77
11
7B
72
6F
0F
0F
7E
04
74
05
15
12
1C
6E
7D
17
7E
70
0B
64
7D
0B
04
0C
1A
10
7D
1C
06
09
63
10
02
60
75
77
64
70
0E
65
00
0F
7C
1B
03
11
14
6D
18
09
0D
64
14
75
63
7F
01
13
7A
68
66
03
0D
05
04
11
79
13
7B
20
6A
17
08
62
0F
73
17
0C
6E
10
70
7A
10
67
0F
7F
78
7C
75
7F
70
1E
73
7D
05
13
18
0E
17
01
11
13
6A
13
68
14
77
14
6E
1C
0A
0D
14
6E
05
0D
76
73
6B
00
1B
07
18
08
70
60
11
08
12
18
75
0A
75
0E
72
73
04
0A
7D
02
05
79
18
07
7B
67
7F
69
09
60
5A
07
77
7E
6A
28
02
6F
73
05
06
78
7D
0A
0F
76
66
14
66
4F
15
05
26
7A
7E
7C
05
77
11
0A
01
00
08
0C
69
1A
01
6B
11
75
03
02
7A
6A
6E
7B
1E
15
0B
76
04
79
10
6A
00
68
64
0F
6E
0E
08
68
14
75
7A
2B
73
6D
67
7B
7D
0F
01
2C
6A
17
5A
02
4F
0E
64
12
77
11
61
0E
12
24
0C
02
70
15
7B
16
7F
06
6C
6D
15
36
13
30
6C
50
67
69
08
72
66
67
05
71
12
71
05
67
14
72
22
24
0F
7A
56
6D
7C
0D
6A
71
71
05
61
63
08
00
06
66
15
02
74
78
5C
6D
0C
73
6A
07
6B
54
79
0A
18
72
69
02
70
71
02
72
22
6A
0C
11
77
73
03
76
68
64
13
0A
07
66
77
00
0F
0D
7A
1A
12
1D
61
0C
76
07
65
03
07
72
06
17
2C
62
68
04
7B
1A
0C
52
68
67
09
2F
19
72
51
04
73
7C
7B
7C
14
70
75
0F
08
04
64
0E
09
76
13
00
07
27
10
04
73
27
09
25
7A
72
05
00
11
7A
6B
68
78
5E
0B
7F
1C
19
6F
15
25
14
74
04
7C
5D
02
76
7C
02
08
0F
67
64
09
18
30
79
6E
0E
6F
78
73
7B
7F
7F
60
77
06
5F
79
59
19
6D
71
0E
0F
61
77
05
16
0C
7A
0A
58
02
00
69
09
17
08
6F
14
6C
12
7D
07
2F
7E
05
7C
04
6B
15
02
75
7D
71
0C
7C
76
16
07
08
14
09
12
66
08
5E
58
6A
10
1C
71
10
5C
04
7C
7D
7C
17
09
72
0E
16
02
1C
08
71
79
65
16
05
7E
77
01
74
02
2C
18
18
7E
01
6A
74
06
03
69
05
08
16
6C
69
1B
16
0D
74
16
1C
15
5B
72
0E
7C
06
19
56
5C
0A
75
74
71
7E
25
07
17
7F
7F
70
6D
02
1F
0D
04
73
06
03
1A
59
08
11
01
0B
09
6F
6E
08
69
7F
03
77
5D
10
77
75
05
03
6B
79
6E
67
09
61
7C
16
00
08
6A
09
00
17
0A
7C
60
0D
21
79
71
18
02
6D
65
27
03
72
0C
60
07
07
66
0B
19
13
0E
0A
77
02
6D
7B
1E
6B
26
65
73
7F
6A
7B
6B
74
76
12
19
77
6D
0C
7A
11
7B
77
07
6E
0A
16
68
7F
76
75
6E
78
06
67
18
7D
19
7A
6D
06
13
10
78
61
11
6B
13
0B
66
79
67
11
11
18
15
18
6A
76
07
6E
08
7C
09
19
01
68
69
0F
74
6D
22
01
63
66
7E
14
5D
18
7F
76
17
02
68
0C
69
0E
06
10
7C
5E
7C
7B
7A
0D
23
29
7E
6B
7F
0E
00
03
7B
7A
00
7C
11
01
79
72
74
17
09
0B
24
6A
01
71
77
10
08
73
66
77
7C
02
0E
63
09
76
71
08
78
08
66
29
0E
0F
08
02
6B
25
7C
0C
7B
68
05
13
1F
6D
27
0B
7B
70
16
6E
70
17
1E
5F
6A
64
6B
1D
7D
11
20
06
0F
0B
63
2D
11
57
7A
6C
7D
11
13
7F
01
7D
08
12
07
7D
13
0C
17
10
23
03
02
68
19
7F
18
63
18
7D
0E
79
7A
2E
6C
0A
7B
68
16
6A
05
7A
7C
05
6C
7B
0B
74
65
6C
6D
79
21
0F
0B
0B
6B
18
09
6B
67
6A
6F
00
6B
08
14
17
11
7F
12
7E
73
13
6F
71
02
70
74
7C
7F
75
13
71
04
0E
18
15
7F
6A
29
14
7E
79
11
04
75
0F
00
5A
64
6C
70
10
16
00
09
68
0D
11
06
72
6C
6A
11
1A
05
65
7F
0A
6A
73
03
05
71
0B
16
07
02
0F
0D
78
17
12
14
07
0C
7C
7B
14
1F
6F
71
5B
71
74
79
13
04
0E
16
03
05
03
04
10
02
09
14
09
78
17
71
6F
14
68
71
09
59
00
7F
15
05
76
5E
77
12
7E
71
6D
15
63
17
0E
0A
20
1C
0C
78
02
26
08
13
61
7A
15
75
74
08
7F
12
7C
68
06
5F
7B
7F
7E
09
00
08
7C
1A
7F
29
17
79
03
25
74
71
02
67
10
6C
7C
16
78
7F
7B
7A
12
2B
09
5F
18
0D
74
63
16
06
6E
10
65
75
20
5F
18
10
7C
14
16
04
14
0A
63
6F
09
77
23
12
61
65
01
06
10
77
71
1D
6E
18
7A
04
0A
10
74
26
74
1C
0A
65
19
0F
00
5A
12
16
74
74
7F
05
05
00
74
68
74
7C
6D
72
6B
70
7E
04
02
78
16
7B
7D
03
76
71
12
7B
0D
7C
17
11
12
19
65
15
09
09
19
62
16
7F
1C
0C
0F
04
02
76
09
77
2A
6E
78
7D
5D
7A
16
18
0D
61
0E
6E
77
10
12
67
6E
0B
04
7B
20
16
69
68
1C
66
7E
0C
22
72
01
09
69
72
6F
11
19
5C
03
65
1E
73
78
12
02
6A
0E
07
09
1C
67
0C
08
7D
63
71
64
07
77
64
70
72
04
0F
0A
04
71
1B
05
75
6C
1F
66
7A
03
69
0C
6F
1A
75
02
66
64
70
76
78
0E
0C
6E
17
7A
65
0D
75
75
27
61
11
7E
72
77
6B
0D
08
6F
02
01
16
09
66
64
7D
64
07
05
70
6E
71
07
06
10
14
0E
17
11
10
6A
65
09
0F
6B
7D
71
69
68
12
13
6C
66
73
12
6B
6C
77
6B
69
67
77
10
7D
1B
17
1A
06
74
7E
1B
7F
75
65
6F
06
0E
7A
04
73
1B
6B
1F
0C
11
01
14
08
68
05
62
7E
03
08
19
70
79
0E
03
15
16
6B
07
63
0A
08
72
59
0F
15
0E
20
17
16
06
6F
17
67
68
65
7C
10
16
71
76
23
0A
74
07
04
0C
1A
08
10
02
68
65
05
58
7A
64
77
03
5B
6E
22
16
61
13
67
01
7E
6A
18
17
7B
61
28
05
0A
6A
06
7F
75
6C
65
19
1C
0A
06
00
7D
69
0A
66
18
05
6B
6E
65
70
17
0C
65
6A
70
0A
6B
72
0E
69
72
77
14
06
02
79
78
7E
03
79
01
6C
64
6A
06
03
7D
0A
71
11
5E
7B
78
71
5F
78
73
5D
79
09
74
1E
0F
17
15
68
05
0D
74
60
6D
71
6D
0B
0B
06
05
6F
19
69
26
63
79
07
75
67
6C
19
19
6D
79
16
75
12
0D
06
0F
6A
7F
66
11
70
7B
03
7E
04
00
13
00
6B
04
77
7C
0C
5F
7D
7E
19
68
7D
22
14
0A
6B
22
0F
6D
76
65
6F
75
17
68
77
7E
7A
65
10
73
0C
1B
60
1A
03
0A
01
7C
03
7D
0D
16
74
7F
10
18
11
5F
18
0F
11
6A
20
68
6D
63
79
7C
75
01
7A
78
00
0F
09
0E
03
71
04
0C
03
65
66
7E
64
6E
03
23
24
77
08
71
7E
0D
00
28
08
16
02
17
76
09
16
11
1E
02
02
0F
07
12
79
02
1F
00
7D
70
68
17
72
7B
06
1B
1A
19
02
15
6E
20
05
75
7B
6F
71
0B
02
66
6E
0D
7C
5D
7B
6B
74
7A
0F
72
7B
74
12
2B
0F
1C
05
0C
13
76
06
08
55
02
7C
68
76
27
65
09
62
0A
73
24
0B
2A
73
7B
76
0C
01
7C
09
76
68
6A
02
69
6E
10
14
6C
0A
1A
13
66
06
6C
14
0D
0F
74
6C
79
73
1A
05
7B
06
75
6D
0B
78
7A
00
10
08
69
7A
18
75
1B
11
18
13
0A
0A
0C
7B
03
72
76
6F
0D
75
73
18
75
0A
6E
12
0D
16
0C
74
75
14
07
7E
6C
12
11
0B
72
68
08
64
0B
0A
03
04
64
6A
03
6E
1A
7B
0A
74
67
00
6B
71
04
0D
7B
7A
76
74
6B
6B
27
12
19
71
74
17
63
0D
08
5E
0B
6B
04
72
7F
68
08
18
02
66
10
12
0D
07
7E
08
67
04
05
79
7F
75
11
02
12
67
0F
66
63
6B
6A
70
73
05
03
74
0F
1D
0A
0B
6B
73
75
05
6B
07
14
0E
06
79
6C
64
6E
7F
18
69
7E
79
7B
72
12
0D
6A
6B
0F
64
11
0F
12
09
6A
6C
7A
12
78
6C
77
7B
03
10
75
73
70
7B
02
65
7B
7A
7C
09
1B
19
6A
7B
69
72
08
04
04
7D
65
7E
70
67
7B
79
14
14
13
79
12
6E
7B
6D
18
70
02
7A
06
13
7A
7A
0B
0A
02
06
65
78
0E
1B
09
1B
74
01
15
76
67
6B
01
11
19
7C
01
68
00
65
6F
69
7A
6E
6A
06
70
00
19
06
6D
08
77
0E
14
68
67
6D
66
19
67
79
16
66
6A
79
18
00
70
17
04
71
74
79
70
14
64
7F
0B
13
75
0A
12
0D
01
12
0F
68
6A
02
75
04
03
16
11
00
76
11
7F
14
76
11
7A
1A
66
0A
05
07
74
73
12
15
6B
71
65
79
04
10
6E
10
65
77
74
77
05
64
74
02
06
14
06
69
16
15
75
78
23
72
68
04
14
11
6D
6F
19
77
66
72
72
7D
1F
06
7B
07
79
75
1A
7D
09
17
21
0A
12
01
11
15
76
05
7A
75
76
14
75
69
15
74
1A
6E
79
0D
10
14
15
6E
63
6C
67
0E
68
7B
73
04
7E
0C
69
1E
65
74
0F
04
69
15
14
11
11
70
0D
0D
7C
13
16
0B
02
18
17
65
18
75
6B
09
73
03
7D
76
11
73
75
68
11
00
18
06
09
03
65
75
0B
7A
6E
77
0D
0D
6A
0B
6A
7A
10
70
13
06
14
6C
65
00
0A
73
0C
77
6C
07
79
67
15
6C
13
10
13
73
12
72
03
18
79
0B
6B
03
6F
0C
1A
0C
02
04
05
11
70
14
6A
0E
08
71
0F
16
7E
00
06
76
69
15
72
12
18
07
7D
78
0F
6D
11
67
12
6B
65
0E
64
7C
0F
19
7F
1A
7A
6D
76
06
02
17
7E
7D
6A
77
73
15
73
62
11
0D
1E
05
06
7D
0D
04
6A
71
0B
7E
15
14
01
04
01
72
12
72
6E
17
13
6A
73
6C
15
13
06
7F
09
6F
18
76
09
07
7A
08
72
6C
69
7D
16
09
05
74
18
7D
62
7B
16
79
7A
18
00
0B
04
1A
05
67
15
6A
1A
6A
6B
15
01
02
7E
74
19
76
00
67
6C
0C
6D
0F
6B
67
70
13
03
00
72
7D
0F
08
1E
14
67
6F
07
09
07
7D
09
11
12
7C
79
1B
74
17
12
7C
6A
66
7D
7F
6D
1B
0A
09
00
0E
12
69
1F
08
17
06
0E
18
12
10
0D
0E
17
6E
74
0B
0B
74
7C
75
12
18
7E
16
07
19
04
15
70
12
7D
66
0D
7C
72
7D
79
72
6A
0A
15
76
13
08
76
13
02
7E
08
66
7B
0C
14
7C
0D
0F
76
0A
64
0A
05
76
0A
64
6E
7A
18
18
67
79
69
67
18
14
0A
7E
0A
7D
1B
0F
1A
00
17
6D
04
19
67
7C
65
0D
14
71
7B
02
05
05
6B
09
7E
74
78
7B
66
0D
00
10
0A
71
7A
70
77
66
00
05
6D
10
0D
60
77
71
06
0F
7A
66
09
6E
67
13
7F
69
21
72
0D
68
05
1A
6B
6B
6B
05
7E
6A
78
7C
79
72
12
66
76
14
0D
07
69
03
17
7E
7B
74
13
7A
0B
6E
7C
19
12
07
66
19
77
0B
08
02
02
64
79
77
75
6C
03
73
0D
0B
6D
74
6D
7E
7F
01
7B
0B
67
72
77
7B
13
6E
5C
0A
78
0E
24
17
08
76
6F
72
0E
09
02
75
10
77
0A
1A
03
71
7F
73
7F
7A
76
7D
7C
76
1C
7E
10
77
1B
10
05
65
7E
72
0F
7C
07
05
69
01
0A
00
67
68
7E
69
19
70
00
0C
66
76
11
01
04
08
76
16
24
13
6F
08
08
7B
65
6B
79
07
14
6B
73
60
77
08
04
11
69
6D
1A
15
6F
15
77
02
0A
7E
0A
69
63
7E
04
09
7A
73
68
73
14
0D
0D
6F
76
0A
09
71
72
1A
08
0B
6A
65
71
6D
0F
64
6A
07
04
68
0C
07
6B
1A
76
1F
5A
0D
00
6F
09
79
71
08
79
65
0E
22
69
7E
15
6E
14
70
6C
77
65
0A
11
14
0E
7A
7C
74
74
14
02
72
06
12
11
13
74
08
08
74
13
7A
79
09
71
68
72
64
77
5F
1B
64
07
1E
11
73
7B
6D
1B
13
0D
0A
0E
6E
7B
09
05
08
06
63
19
7F
70
0F
72
5B
62
0D
7F
65
67
09
6F
02
15
14
19
6B
68
7B
11
78
51
65
0F
04
5B
6A
7A
61
65
0A
0C
7B
0E
