1A
C5
D5
08
01
E9
13
07
18
10
03
18
E8
38
F8
FE
D8
E6
23
EC
3C
26
F3
C2
17
3B
28
E2
BE
20
10
DA
F7
1F
E6
03
24
FA
24
E2
00
DC
BE
DB
24
11
D0
E9
C6
1F
BB
20
D2
D5
18
FC
D8
D7
25
24
D3
EC
F6
E6
20
F5
26
1B
0C
3A
DA
FE
13
F8
08
F5
09
D1
16
DE
F4
10
37
F1
CD
F9
2C
FC
E1
C9
1A
EC
D7
19
F7
F6
1F
DE
D6
D0
17
28
EE
FB
16
33
EE
06
1C
FC
D8
F6
DB
02
4F
FA
0F
14
22
13
01
1C
C3
F5
C2
F4
F9
E4
DE
EC
D7
29
35
E2
FF
21
2D
00
16
F9
E1
2B
EC
1F
F9
03
08
D6
29
D9
09
F4
23
30
FE
1F
DC
E3
24
EB
CA
23
F3
08
24
22
08
2D
00
B9
1A
E9
C0
03
D4
0D
C7
00
12
3C
E4
17
E2
15
E1
BC
4B
E8
36
E2
DB
0C
12
12
D1
DF
1E
F0
08
20
28
E4
36
E6
1F
1F
F5
FA
1F
33
DE
F1
E5
14
2F
28
E1
F8
29
1B
06
F9
DA
E4
E2
08
F3
17
2E
07
FE
00
CC
2E
EF
21
D4
E6
1D
1C
0C
0A
03
E6
EA
08
04
DA
D5
D4
18
FB
20
1F
EC
EB
11
FB
1F
D6
25
F6
D4
F8
23
F6
DF
D8
26
E5
01
EC
17
D8
10
19
0E
0A
EE
F3
22
1A
29
16
1E
E0
06
14
F6
06
15
F2
D6
19
F2
D1
16
1D
D9
DF
13
DC
E8
F8
05
2B
DA
2C
FE
04
18
18
20
23
F1
FB
0C
04
14
2B
FB
D9
15
09
25
F6
22
F4
15
DE
24
0D
FC
D9
10
09
FA
09
F3
01
F4
02
09
E9
09
D7
1A
E0
E9
13
EA
0D
2D
FA
22
04
1E
2B
16
E1
1F
FE
F6
E2
27
E4
DF
13
03
04
12
F9
00
F5
DA
E6
10
F3
E1
19
F4
26
E2
11
F5
EB
FA
11
0E
1A
29
F3
10
1A
E0
D7
F2
E6
14
FB
2A
15
D5
08
0D
2B
FB
0A
21
1E
F1
E6
2A
EF
2E
ED
F2
DD
20
FD
F1
2B
1F
E3
FB
07
07
06
23
F2
06
D5
D9
1E
FF
29
26
ED
16
12
12
10
01
24
DE
FA
E3
E8
FE
DE
06
2D
0B
2B
21
E4
27
0E
DD
FD
29
29
1A
E3
21
FD
DC
13
F2
25
08
EB
E8
0C
06
0C
FE
1D
D5
D7
EB
F6
E9
DA
16
DE
F0
FC
25
2B
14
10
E7
15
F2
D4
E2
FC
13
FD
1B
FC
02
E5
01
D3
0D
13
00
1C
D6
2B
29
E6
29
D3
F0
E0
21
F5
00
E1
2B
E1
FB
E8
19
F0
0F
FA
F4
12
00
EB
FA
DA
F3
E4
01
01
E7
E6
EF
FE
E5
E3
25
DC
01
0C
D3
0E
23
26
25
E5
10
01
06
D3
04
FD
E4
17
FF
2B
F7
DE
F7
05
0D
2B
F1
05
D8
E4
11
EB
12
09
09
0D
D8
29
1A
E6
16
D2
22
E1
F6
EF
D4
FE
27
09
05
08
DC
D7
0F
0F
F0
21
24
23
D7
20
00
10
06
15
EA
26
E1
E1
05
14
E1
2C
2A
2C
DF
F2
16
F7
21
EC
24
23
D9
D8
0B
E5
F5
14
D4
E6
13
F8
D6
F4
07
D5
22
E4
F0
21
24
FB
EE
E3
16
F3
38
28
F9
E7
02
EA
35
01
13
CB
D5
48
F6
D8
E8
E5
0B
19
19
0F
16
DF
1C
E3
17
03
35
FA
00
01
2F
F9
2D
FE
08
24
EB
23
13
D5
40
F2
21
24
2C
2A
1B
0C
E7
EF
26
2A
E6
0B
F5
1C
0D
10
E0
16
17
DE
E9
CF
F3
FB
F3
DF
0C
DB
EC
E2
26
2F
25
1B
29
F2
04
1B
00
1E
25
E0
E3
E2
CF
F7
D1
0D
1D
3A
38
23
0D
F4
F9
C7
3A
1E
01
F2
14
F5
33
27
1E
20
C9
F8
29
3E
25
E2
0F
EC
15
E1
DF
C8
27
0A
DA
0C
F1
D0
FA
1E
40
FD
F5
24
03
E5
36
04
12
EF
D3
EA
09
17
32
26
35
0A
35
FA
0C
22
C2
0F
0B
0C
1F
E3
1E
EA
F5
07
3E
EA
16
E9
BA
09
24
E9
02
D3
0E
38
E1
DE
DD
F6
D3
0D
D1
30
DB
0F
E4
29
17
02
EA
07
F7
26
DA
0B
10
0D
F5
EF
0C
09
EF
E8
33
2E
DC
13
E3
E8
2B
1D
D9
1F
2A
F1
E3
DB
F6
F0
27
E8
16
F8
02
0C
18
D1
1E
1C
FA
EC
1C
D4
08
22
0F
ED
18
0E
1B
11
2C
26
D1
E0
D7
EE
34
E3
D3
27
26
E4
24
E1
09
F2
15
F5
1A
F0
08
30
DE
18
09
16
CF
10
0D
FC
17
FD
2A
FB
10
F6
F9
1F
02
CE
E5
F5
E8
F6
1C
E2
21
D7
04
0A
29
16
09
E3
14
08
03
FE
E4
FA
FF
19
19
E0
CB
26
F1
F1
F1
F0
FF
0F
19
E3
FB
D3
D2
EF
34
29
17
C9
20
0D
CD
FE
CD
DF
35
00
F8
04
D9
F1
0D
EC
1D
F6
E2
DA
F1
D2
FD
D3
BE
0F
F8
F0
38
12
19
FB
07
1B
04
EA
35
D8
E0
C5
08
F9
15
00
22
1D
F3
0B
1E
DB
E5
EB
23
10
DA
E5
25
17
0C
15
18
EE
05
08
D6
F4
ED
20
EE
E2
1A
DC
1F
10
FC
EA
FE
27
E8
17
1C
F4
16
F3
FC
EA
EB
ED
0E
F5
DB
08
26
1F
DC
1F
17
1D
07
04
D9
27
14
F8
E2
F6
D9
01
25
F7
F0
07
E6
08
E7
DF
FF
1A
FA
02
DC
1D
17
F6
1F
1E
ED
E4
1D
E0
0F
F0
F2
F7
ED
1B
D7
F3
17
F8
D9
DD
25
F2
E5
16
29
0A
1C
E4
22
FF
ED
0F
E8
DE
FA
E3
FC
EA
05
E7
1F
DC
E0
EB
10
F0
2C
01
D9
16
0A
01
0F
0A
F4
D4
0A
28
05
FC
18
FA
C0
07
1C
11
38
FC
FE
EB
09
19
14
E2
36
06
31
F0
35
1F
C4
EB
16
05
F1
21
DD
1B
F3
28
0F
3C
F0
04
3D
0E
05
02
3F
13
CE
E2
1B
14
CE
1B
CB
24
22
2E
FB
F9
03
05
F1
CC
C7
0A
12
D3
D6
DF
01
21
E2
F4
12
E1
1A
12
0F
FA
FE
23
07
0F
F0
DF
CD
E1
E5
DA
40
ED
C6
EB
29
FF
D9
F6
E8
F3
2B
E5
34
C2
DE
28
C8
F3
E8
BF
23
C6
0B
26
12
FA
47
11
F0
F2
D4
EE
27
10
03
1B
1D
0B
E7
02
02
EF
DA
D8
29
14
00
2E
E1
F8
ED
17
26
1F
FC
E9
28
1A
2C
E1
EA
18
F3
19
00
F9
18
01
EF
FB
E7
D3
0A
DB
EB
EA
26
1A
FA
13
DC
F6
01
F8
F7
2A
1E
E1
F8
26
DA
08
EC
F8
00
25
E1
D5
E1
26
F5
E0
24
1E
2F
00
DC
E2
F7
DA
29
F1
F6
E0
E7
12
09
24
C8
D5
E9
2A
24
19
3F
35
E2
21
16
01
0D
C4
2C
04
29
F6
13
20
0E
25
28
20
DB
F9
05
DC
FD
11
FE
DA
F9
DA
23
D4
0A
C6
FD
2B
FD
35
FE
FE
1E
E4
FC
E0
22
D7
E0
CD
18
11
04
05
D7
EA
22
E1
C6
EB
D5
28
D7
09
F4
D4
C6
FC
26
13
ED
E8
F4
FC
17
19
FA
FA
EC
E7
01
FC
D2
27
E1
21
EC
DE
EE
D9
E5
E0
D3
2B
37
2B
11
20
0E
D9
2D
17
EA
0E
35
0F
2C
ED
00
05
24
F3
26
2D
19
F7
ED
06
BA
08
14
ED
FB
0E
42
19
45
EE
DB
10
0E
06
0D
37
EB
0E
1C
25
1E
DD
26
29
0C
E1
C6
E3
1D
FF
EF
D9
E6
0F
2D
0C
1A
2F
C9
BF
E8
1A
E8
06
DB
C4
D4
D0
04
EA
DE
F4
13
D8
19
BE
46
27
24
10
17
20
F7
29
DE
DC
2A
D2
29
EE
2B
E4
20
DA
1C
ED
DC
DA
F2
CD
04
FB
21
05
FA
0E
E4
21
13
FD
21
EE
ED
E5
DE
FD
F0
28
1A
D7
15
FB
E0
CE
15
DA
26
D5
0F
31
DD
16
FB
FA
05
F3
DB
21
2B
18
0B
E2
36
0A
0A
16
1A
F6
F6
D9
E1
41
09
E8
DA
19
41
03
02
FA
E8
E7
0C
1C
11
E9
E6
D5
38
1B
05
FB
09
20
FF
15
FC
04
0B
DF
29
22
19
D2
27
35
E5
F7
07
09
18
11
D3
16
E4
F7
48
18
17
EE
05
DD
F3
1C
1F
E3
CE
FA
DF
0E
20
2C
F4
19
E3
E0
DF
F9
F2
1A
EB
0F
17
0C
0B
21
E7
F3
FC
E0
01
F1
25
EB
22
1B
D3
E6
1A
29
E5
F8
28
1A
28
FD
07
26
24
22
F4
FE
E6
1D
F0
E9
0D
D3
FE
F0
D7
F0
E4
10
22
E0
05
05
E0
E5
12
07
18
23
D6
E5
C0
29
0D
03
0D
0B
1B
ED
36
DD
F0
06
FB
E4
18
18
DE
E2
BF
07
FC
FE
1D
2B
DD
F4
CE
2A
F6
24
04
33
FF
06
F0
0B
E5
12
D6
13
E7
D9
CC
DC
FA
D4
E0
E6
12
32
19
DE
C7
07
F4
0F
1C
D6
00
F8
0F
FE
08
09
F7
11
11
24
18
F3
0A
21
FB
14
06
31
EF
03
14
21
12
22
13
11
32
17
D5
1F
D8
27
E7
DE
04
16
C4
EE
2D
E7
04
D5
D1
39
F6
D2
12
26
D7
FD
F7
CA
DA
10
2D
24
C3
13
BE
18
EA
EC
36
20
DD
00
F4
20
18
04
1C
23
E7
1B
04
E1
DE
1A
0D
29
F3
0C
D6
FD
27
F9
F1
11
11
D8
D7
E2
23
DE
E4
D7
D2
00
ED
2C
E7
16
E5
2B
27
E4
E4
F7
22
0E
FC
EA
EB
DC
0A
1F
D7
20
0D
18
D3
26
F2
2A
F4
F5
11
D3
03
2B
D5
DE
03
F6
E7
28
32
27
DA
EE
0B
F6
F8
02
D5
DA
DA
27
2B
1A
D0
01
FB
27
26
FA
0D
26
D3
20
26
F8
11
0D
25
FF
2A
EA
27
0A
F6
22
03
0F
06
E3
CC
E0
F2
D6
0D
E0
23
21
0D
06
24
14
10
0B
26
DC
0E
2E
FB
22
04
16
D9
E8
10
11
1B
21
2D
F2
1D
E5
05
1F
FB
01
E2
E2
FF
0A
E3
00
29
FE
EF
EC
1B
D7
FD
0A
2C
EC
FB
19
F4
12
0A
E2
2B
E7
EC
26
1F
F2
EC
26
DF
27
21
E1
22
FA
E5
19
13
F5
EC
D9
F8
DF
07
D8
E3
14
15
2B
E1
1A
2B
06
EC
EA
E3
F0
04
F8
E4
E0
D5
FF
01
11
D7
FF
1B
22
EA
D6
EC
DB
1F
FC
02
F3
E5
26
1A
06
27
10
18
EF
D7
ED
01
0C
FD
21
DD
E6
21
06
2A
1A
EA
04
19
1C
E0
E8
F2
D5
27
F2
DB
1F
D5
ED
26
ED
22
F6
EA
0A
0B
0D
DC
15
F4
FC
EE
E4
2A
20
1C
13
0B
F9
07
F4
EE
F5
E9
EB
14
28
E2
0C
12
E5
2E
33
DB
0C
FB
F1
D2
DA
1D
12
E0
1C
22
E4
1B
07
17
1C
D7
F4
10
FC
07
E0
E3
2E
07
DA
1B
19
EA
0C
02
00
2D
0A
07
F1
14
10
23
1A
15
D7
F4
E8
2A
07
F6
CF
05
E1
38
26
23
17
F1
EC
D5
E9
0A
DD
33
DC
23
D5
11
0E
04
F5
16
FD
F0
2D
39
07
33
03
0E
2B
18
FC
CC
06
FA
D8
F0
01
16
20
1A
E7
39
F0
EB
DB
E0
1D
D3
EB
EC
DB
F9
E4
EF
DF
F9
DE
E5
24
ED
21
19
E3
EE
E8
F7
D9
06
12
18
E1
28
0B
24
16
09
E6
F3
D9
05
1C
F5
FB
ED
DC
D9
2A
F7
D4
E6
E2
F6
08
00
1F
0C
2C
19
D6
0A
11
FA
2D
F3
17
02
EE
DA
E9
E2
2A
1A
0F
26
EA
01
08
0A
04
03
F6
DA
E1
E8
FF
F1
01
FF
07
05
F9
E0
F3
F1
08
F0
18
07
10
02
1B
10
F4
22
DE
E2
FD
DD
1A
E0
0C
E0
1D
16
0A
FE
06
1F
0F
F1
DC
0D
1F
EF
DE
05
EB
E0
D3
0A
E0
05
01
2B
D5
17
EB
E4
04
EB
D6
F1
FD
11
DB
FA
25
37
EA
13
21
FA
D9
1B
0D
D6
3E
E5
F8
E1
FF
3F
00
DD
E9
03
2D
EE
DE
08
17
E3
E1
35
22
16
EA
20
FE
F0
E3
40
04
3A
32
32
E2
12
04
FE
3D
E3
FB
F2
29
EE
FD
FA
C1
0D
D3
DE
FD
18
20
01
E1
FD
26
08
18
FB
19
15
02
FB
E6
0E
ED
0D
0D
F6
2E
E7
DA
22
25
0D
03
EB
16
D6
E2
0E
1A
0D
D2
2E
FA
15
F7
0D
25
18
E1
EA
12
F0
0C
DF
26
00
0A
FD
DC
FE
E0
E1
20
1B
1E
F1
0F
CE
18
13
3C
10
0E
0B
D5
40
FD
12
12
DB
F3
29
2F
2D
02
F7
D3
1E
FE
EB
0C
F1
0E
0F
DD
E3
D8
D8
2C
F1
24
37
FD
0A
2B
0D
0B
CB
DE
09
03
DA
FC
C8
CD
10
28
C6
ED
D6
00
15
C3
3A
13
E2
19
E7
EF
23
0E
E1
21
21
E9
02
D9
EF
D2
36
09
CF
F8
C4
22
23
D9
DA
FD
F5
FD
3E
D7
0E
11
04
15
F5
10
03
D4
E1
D1
F9
E6
2A
D4
E0
01
C4
FA
0F
09
EB
09
E5
E9
E3
E2
FD
27
EF
D6
EF
D3
DF
D3
06
FC
1B
16
FE
E6
D8
03
F6
E1
E2
1D
04
21
D8
F0
FE
F9
D9
FA
15
21
1D
21
DB
FE
D6
EC
F6
E9
10
0F
E2
1A
09
E7
12
D4
0A
E3
F5
1B
28
2A
FF
22
19
DC
DF
01
DC
E9
D3
DC
21
18
F3
DD
28
18
05
0C
2B
11
F2
22
10
24
D4
EB
D7
3B
2D
0D
29
25
D8
00
2A
F8
3C
24
14
01
E2
20
D5
EC
2B
0F
FC
0D
24
12
0C
14
03
D3
F7
30
03
06
CB
C8
29
F8
0A
EC
D2
1E
28
CE
EC
DB
1B
D3
FD
F9
EA
E6
34
04
DF
F1
08
E2
F4
05
06
0E
F0
D5
F3
F2
FF
1B
DB
10
EB
E7
07
D3
1B
17
09
DB
DF
DB
F8
23
D3
1D
ED
D6
ED
DB
27
DE
D7
F7
29
14
19
E3
F2
18
F4
09
FB
FE
E4
F8
EB
FA
F0
13
0C
26
2B
FD
FF
07
1E
FE
F1
DE
0D
12
ED
1B
ED
E9
D8
FB
DA
EF
E6
D5
16
13
DA
27
30
0E
CE
24
01
D7
F1
17
21
E2
BB
D5
E3
C3
C0
D8
F2
FE
F3
28
E8
D2
DC
E2
12
05
D1
D8
EE
F5
04
FA
DF
25
0A
08
E5
29
03
F8
CD
F6
3D
CC
42
31
0C
CA
25
FD
09
F9
FC
2E
27
03
32
FF
E5
F0
EC
14
DE
10
27
E4
F1
F4
D5
17
D6
FE
FD
FF
DD
19
2C
0D
D8
E7
11
28
23
FC
24
EA
EE
12
23
EA
13
28
28
EC
17
DE
04
2B
07
08
E6
FE
2E
11
1F
04
13
D4
D8
05
FB
E2
00
EA
F3
DD
EF
F9
EF
0B
24
F2
E6
29
F6
08
0F
EB
E0
06
01
DE
F3
D3
24
E1
E5
16
DD
F4
07
D7
E2
D4
FB
DC
EA
D6
EB
1C
21
26
E7
E1
1B
19
DF
27
10
F8
FF
D9
E2
1D
F6
01
2B
E2
05
07
00
25
28
FB
D7
DD
08
F9
E2
FB
0E
10
26
F7
EF
16
16
03
E2
15
C5
21
10
07
F8
D5
15
F2
25
E3
CF
EC
D1
FC
E3
D6
D4
24
20
D6
1A
00
24
28
FA
F5
E0
E7
17
D4
20
D8
E6
09
C3
D9
18
E9
F2
FF
10
D8
C5
01
17
04
09
DE
F2
05
30
1E
10
16
03
21
41
F4
13
1C
11
F5
05
D3
1C
1A
E8
D7
ED
0A
0E
D4
1C
0B
F3
EA
F4
20
EC
EB
03
D5
EF
DF
E5
E7
DE
FC
08
02
E1
24
06
F5
F3
09
E3
0A
2A
24
E9
1B
2C
04
0B
12
07
20
E8
00
EB
E8
12
17
EF
1C
D9
0E
FF
12
F6
2B
29
ED
F9
E5
09
D7
FF
17
D5
19
FE
D5
1F
EE
C6
EF
19
15
0E
2A
30
1C
22
18
E7
FA
E7
F0
06
14
2A
28
30
11
23
1E
29
10
D3
01
19
01
09
12
24
FA
E2
DA
E5
02
23
00
1F
13
1A
1F
31
FA
3C
F7
D8
31
E7
E0
D3
1D
FF
1A
28
DA
F0
EA
EF
DB
E7
FE
25
1A
13
F3
15
26
02
F5
E1
33
1B
08
3A
05
01
01
F3
3B
DC
0E
E9
DA
1C
D5
1F
F2
0D
0A
DF
F1
0F
CF
30
F3
D9
27
1D
21
D4
20
E2
28
CE
31
F7
FC
2D
F5
26
1E
EC
EE
F9
BF
E0
DE
1D
DA
D4
2A
23
F4
1B
0F
F2
F8
E4
E4
09
11
04
1D
D4
1F
EF
17
FE
D3
22
02
02
29
F8
05
FA
FA
2B
26
F7
00
00
2A
DB
F4
03
D8
07
0C
09
20
EB
E3
E1
17
06
D2
E3
F1
FA
27
0B
EF
12
09
22
E5
2A
E7
FC
0B
27
20
03
EB
13
F2
01
D8
CF
EF
12
DD
13
CA
04
D9
19
DD
D9
DC
1C
E7
32
2E
FE
D7
25
1E
01
E9
00
0F
38
15
EE
21
05
E4
00
16
06
13
08
D4
C7
20
3C
09
25
1E
CE
D5
32
F1
3B
FE
F1
14
E2
2A
14
33
1B
05
2D
D8
0B
19
EA
27
EB
E3
01
06
18
29
F0
1E
F5
D6
D5
D4
F7
EE
EE
14
F0
F0
09
DD
D9
D2
EE
0D
09
FB
F1
E0
19
D8
DD
1A
ED
D3
1A
EB
ED
12
0F
17
E3
14
03
D4
14
1E
F1
F1
F3
25
12
E6
06
01
FC
E1
FA
0B
24
0C
25
D8
F6
DD
DD
19
1E
14
E3
02
FE
E8
0D
0A
DE
06
D7
D3
EF
11
04
F8
EF
F0
E5
EA
F9
2A
0F
04
07
2C
0C
D4
F5
DD
D9
D5
0B
10
E2
28
10
03
26
15
19
0F
D5
F5
F8
EC
F3
22
E4
F1
F9
21
D7
12
0F
F1
FE
D4
D7
05
30
09
36
DE
1C
17
34
16
EA
06
F5
EC
1B
18
17
0B
28
D6
20
C5
1D
29
2A
1C
0B
16
26
DA
C6
11
E3
28
36
EF
26
DD
CD
DD
14
05
D9
02
22
CB
D7
23
D1
0A
CB
EB
E3
28
EC
C6
41
F3
2A
E2
20
EF
F8
11
EB
D5
CA
23
F9
06
00
EC
3E
E7
DF
28
0D
E8
07
02
05
F5
C1
1D
1C
30
DB
ED
DD
02
08
FA
E1
EF
04
39
1C
F5
2B
07
EC
FF
D1
1E
F5
EB
2E
FE
EC
0C
00
1E
41
26
EF
D8
E8
23
28
09
0A
D5
BA
33
EB
FD
DE
24
10
18
07
DB
11
26
07
1B
0C
E7
09
2A
FE
29
F6
00
0D
25
1C
2A
D9
1C
2B
EE
22
E1
0A
2A
00
05
FC
EF
21
EA
D3
F1
F1
E9
05
F3
23
F7
24
DE
23
F9
03
00
DA
02
0A
F7
DA
00
FE
23
11
F8
0A
08
FC
00
02
E8
0F
D5
18
03
2D
27
1C
E9
2A
E2
EC
25
F8
DA
EF
33
2A
EF
E9
E2
0B
E9
E9
25
0E
14
EF
F8
E8
F7
0B
19
F7
E7
13
0B
E0
26
F0
C0
F2
13
36
23
C4
E2
08
FE
43
2D
14
26
CC
08
E1
BF
26
15
C0
C7
0D
08
15
27
25
02
07
D7
F3
D7
F8
20
01
E1
0C
20
14
FB
1C
10
19
1C
22
ED
E0
16
28
DD
13
FC
23
12
D1
F4
25
D2
01
07
E0
DC
F0
1F
F4
18
EF
F0
DD
21
E4
E4
DE
E2
E0
2B
00
F4
DE
27
25
F9
E4
FB
EB
FD
DD
04
E2
DE
0C
D6
DB
21
DF
F0
1A
F3
19
FE
D7
1D
E3
16
E8
DF
EE
EB
E8
02
14
2A
EC
18
0E
EE
EA
22
14
E1
23
EE
FF
FB
D4
27
DA
F1
F7
ED
0B
FF
2A
F0
1E
D4
07
01
DC
1B
1F
DC
1D
11
21
02
DE
F0
1B
26
26
29
04
2C
DD
2B
F7
09
26
18
1C
E8
F5
08
2A
D2
EF
1B
E1
DE
18
E0
E2
13
D6
F6
D9
22
E8
E8
E2
D4
08
00
00
FF
ED
0D
06
DF
DC
1A
E9
10
F0
D7
ED
D6
1E
EA
FB
D7
0B
E1
20
DB
03
F5
FF
0B
F6
08
DC
20
DE
D9
EF
D6
17
29
C6
2D
DC
0F
06
07
D9
14
23
00
E4
14
3D
36
F4
27
CA
E4
29
09
1A
2E
11
E8
1C
E6
F5
05
12
2B
F8
0D
2D
1C
FB
33
D3
FD
00
18
04
20
04
05
2D
09
39
00
1D
DF
F2
0A
EC
28
EC
2C
05
22
2A
2C
D3
07
F7
EC
0D
05
25
FB
01
0A
F8
0C
16
1F
28
F6
01
0D
F6
E4
02
E4
F1
01
E1
D4
16
F7
FC
D9
FA
F1
24
F3
20
E1
0F
18
24
DD
DC
07
2A
09
1E
DB
EF
20
E0
1F
0E
FB
F6
D2
D5
0A
EC
F6
12
F6
0B
0E
EB
0A
E1
F2
29
FC
FD
E7
25
D7
D4
F2
13
E9
1F
1E
01
EF
13
FC
E6
04
F0
DB
E6
E4
1B
E1
D5
0D
24
E3
F7
2D
0B
F3
F2
1C
F1
18
D3
FE
2A
F4
0E
D8
F1
2D
FB
E0
E2
F9
0D
FD
FE
1D
E4
20
DD
F9
DA
D3
1D
12
E7
D4
F0
15
D7
FB
F8
EE
DE
0F
DB
16
F5
F3
E3
E5
20
2A
E4
FE
2C
19
EC
E6
DF
EF
21
10
F1
DD
14
E6
14
D4
19
E2
00
FA
F3
ED
18
1E
E1
15
E8
24
09
2C
0A
08
D2
0A
D7
09
20
0F
FA
05
D6
FC
21
D8
EA
F0
14
F4
EB
1D
26
1F
FE
06
F2
DB
01
24
24
D9
ED
22
EA
07
E9
F1
E5
26
FF
22
E5
0B
0B
0A
D1
D1
F0
2B
FD
F6
1B
F1
D7
F6
12
DF
07
E9
ED
27
E4
24
21
15
05
E0
D8
16
F8
1F
13
1E
14
E5
F6
DC
09
D7
09
FD
07
07
14
14
04
E7
E2
2B
17
00
0B
0C
ED
FF
EE
03
FE
F4
F0
29
D5
DC
0B
14
08
F0
D9
F5
02
28
E2
DF
18
11
D2
DD
09
2B
21
E9
0A
F8
E3
F6
05
0A
EA
15
E7
E4
1F
FA
0F
EA
F3
EB
2A
14
08
0E
17
0C
E9
1F
29
2B
13
38
08
F6
FC
07
D1
10
0A
2B
0F
24
F4
DD
CA
D4
19
F5
1C
FF
E0
E9
10
DB
14
00
0D
FD
EC
2C
DC
F0
D0
05
0F
21
FE
F1
04
37
0F
CF
E9
26
10
D2
D7
3E
06
F1
3B
0F
C7
22
EB
09
F8
06
DB
0D
DA
20
14
F6
D8
E2
E6
D2
F5
C4
16
F1
4D
16
DF
DD
FD
36
48
29
C7
0F
40
02
2C
D9
F5
BA
21
06
E3
25
B4
2C
03
D2
C1
15
EA
F6
1C
F2
21
D9
46
CF
CB
21
57
F6
FE
2F
BB
12
C9
2B
C9
DD
06
0E
2A
A9
3E
FC
D7
DA
F6
0A
F1
FC
D6
D3
0E
F8
D3
EC
E0
29
E6
2B
03
10
EB
E8
E7
EC
F7
F2
E4
E6
E2
FC
09
D5
0A
F1
FC
D5
19
FA
D8
1D
20
17
FA
00
F2
19
0E
15
1A
E7
F3
0F
ED
2C
2B
E5
D7
DF
EF
06
FC
EA
F7
F0
01
0E
E7
20
FD
EA
07
E4
FC
DB
09
0E
DE
D6
F6
FE
DE
0C
03
F8
0F
F7
D7
E0
16
E6
22
1A
1E
13
23
1D
02
E8
D9
03
D5
29
18
14
E9
FC
1E
E6
05
EC
16
27
17
26
15
E0
00
F3
E4
0A
DA
D9
09
20
22
07
E9
E7
DD
02
F9
25
10
09
26
23
10
D8
FB
1B
E4
F2
1F
E5
E9
D8
ED
D9
D2
17
F3
E1
EE
E5
18
24
FE
F4
1D
EB
2A
00
29
DB
E2
FD
1F
29
29
FE
08
FD
FC
0C
E8
29
E2
11
1C
24
E1
DF
EE
14
19
19
24
EB
22
0D
1F
DB
E3
19
FB
22
2C
E8
D7
E7
EF
ED
E6
2E
07
EA
F6
E7
D3
11
0B
FE
DB
E0
29
1C
FF
08
FA
07
10
1B
DD
EF
E3
E0
0C
ED
20
EA
00
0A
E9
01
FD
1D
20
E2
13
2B
F2
08
E4
E8
1D
FA
32
29
32
27
FD
D4
33
1D
DF
34
D9
05
15
F8
08
0E
05
E4
2C
F8
06
DD
04
E5
32
F1
D8
1D
FC
0A
18
ED
CE
D9
18
DA
13
E5
D2
11
FD
01
09
EB
E3
E3
38
DC
10
F2
25
26
0E
E8
D0
CD
27
0F
2C
E7
3F
0C
2A
19
DF
E2
10
EA
D8
0D
10
01
E2
E8
10
E5
FC
E8
1E
0C
0C
04
2C
DE
E9
28
1F
D9
0A
DF
15
EE
EF
E7
1C
D7
08
09
2D
D5
24
E3
ED
32
21
04
D9
DF
F2
F2
2A
E4
17
0C
F8
E5
F5
05
22
F2
F4
28
14
DB
36
27
EB
19
25
FD
E3
0F
31
06
EE
FC
D6
10
F2
15
0F
E7
F4
EE
E3
07
02
16
F0
03
F6
D5
28
D6
15
D7
D6
0B
00
FE
E9
1E
0C
0B
16
FC
34
04
EB
0C
DA
01
F3
1E
D0
E7
C9
DF
F2
ED
44
1A
E0
22
F8
CC
08
19
36
D5
C4
FD
C1
D4
31
EB
FB
D4
D9
E0
F0
D7
E4
FE
F3
0A
FD
1F
F0
11
19
1D
F7
00
E7
E3
03
2A
1A
2D
F0
EE
12
EA
D9
D5
D9
24
15
18
22
DC
DA
FC
13
23
DB
29
16
2B
03
29
24
1C
F0
DF
D5
DD
1A
14
04
F9
EE
09
DA
F8
23
0A
DD
17
E0
03
24
27
F5
E6
FC
DF
05
E6
07
05
27
C7
00
EC
F7
1A
26
DB
0D
DC
11
19
EA
3A
2E
FD
10
F9
1F
DE
E3
07
FB
F9
DA
11
02
E8
25
E2
35
F4
F1
38
EA
FD
0C
EA
10
13
10
E4
E9
E3
09
EA
02
27
DA
0E
3A
16
E5
D9
11
21
0C
E1
DB
21
BE
C3
1F
0E
25
2C
19
FB
2C
EC
03
05
11
D3
34
ED
04
20
EA
EF
0A
28
DC
E2
D0
F7
0F
0E
FF
DC
1E
1F
D7
00
0F
22
D8
0F
E3
18
28
1A
12
F4
F4
D0
E7
0B
F1
07
FD
23
DD
E9
24
F7
DD
D7
D6
D4
04
C8
28
17
F5
09
1B
D9
2B
2C
24
D2
1F
D1
18
F2
16
E5
EA
F6
0C
F9
F7
1C
F6
CF
F3
27
36
D3
23
DC
E1
31
10
F3
14
22
F1
E8
2C
D6
2A
FD
D1
EA
1B
EC
36
1A
2B
15
04
10
44
CC
2C
F4
09
DC
05
13
F7
0B
F2
3D
EE
EA
1F
1D
14
04
13
FE
02
EB
2A
DA
D5
F3
FB
07
DF
E9
ED
28
1B
FD
11
D6
00
D8
09
26
D6
F2
1F
F8
D8
16
FC
DD
2C
22
05
2D
D8
05
18
DD
17
EB
D8
22
00
19
23
01
22
FB
27
0D
13
23
2A
15
16
EB
FD
1E
F5
1D
E6
D2
EE
16
D9
E6
14
FE
F1
29
1F
E3
CB
EF
D5
FA
DF
2E
27
F7
46
E8
FB
04
D2
DC
F5
F8
00
22
FC
E8
0C
24
E9
05
26
45
EF
DB
E8
E3
20
12
24
41
0D
E0
0C
F6
C4
3E
22
FF
FC
29
04
DA
1E
D3
F4
D9
F0
FF
C9
1C
D6
23
1E
FA
08
E1
DA
2A
0D
05
02
DB
28
11
07
25
19
23
0D
1D
21
1F
26
2B
08
FE
0F
E9
06
EF
DB
14
FA
E0
04
DB
F7
E4
FD
01
18
DE
FC
FC
F6
10
D4
D9
FF
EA
EF
20
FD
F9
FC
DA
FE
D4
1A
12
F8
FB
D6
28
25
FF
F9
1D
D8
DC
36
03
F4
EA
12
F4
37
0D
EC
26
FC
0B
FD
F7
F7
E4
E5
DC
32
D6
ED
29
DD
D9
1B
DE
09
03
F4
15
27
DC
E6
FD
DE
E8
CB
E8
03
2A
D1
17
1D
D9
DF
D7
08
EE
1C
D3
18
17
EB
16
07
E9
33
10
F2
ED
D9
D9
27
E0
05
FF
F4
E9
D7
0D
F6
01
F4
F2
DF
F3
DA
E6
EC
FC
F3
18
05
09
F1
E9
05
20
12
17
19
16
F0
F1
13
05
FD
D5
DB
19
D7
D7
E3
FC
19
03
E7
22
0F
06
2A
F9
25
E9
D3
09
E8
F9
E6
FF
D6
EE
DF
F6
F4
3E
09
1B
0D
FC
FA
F6
1B
14
1A
DE
F6
F7
EC
0D
DE
DF
14
0B
2F
F6
33
08
06
EB
16
E8
1A
0F
FA
25
0F
F5
1D
E7
1A
29
E6
0F
17
12
1C
E8
F8
E7
0F
25
07
07
E0
DB
2A
16
19
17
F1
32
15
E4
15
17
07
E9
0D
D7
39
EE
DA
E3
D2
E8
CD
06
15
04
05
1A
32
02
F8
3B
12
DF
F8
DF
03
2B
07
1C
03
F1
FF
25
DE
19
41
34
DE
D3
1A
E4
12
F7
F1
16
C7
FC
DE
22
D3
2F
3C
D8
41
16
35
17
39
07
29
09
E2
0D
DC
0F
E3
F1
EC
35
E6
F1
3A
E1
14
D3
0D
13
08
00
04
C5
C7
17
F0
0E
E4
F4
F1
DA
14
F4
D6
DE
FB
D6
F1
D6
E2
1F
05
FC
0E
CE
CE
F6
F7
EF
F2
FD
12
F5
07
D8
34
C8
E0
25
07
CB
0C
D4
D4
FE
03
DA
3D
D3
23
2C
F7
2C
04
29
0A
1E
2B
2B
23
D7
16
0C
E7
19
E2
18
DC
EA
FF
FA
E7
1F
EB
E7
EB
28
D5
E7
E4
1B
06
1F
ED
0D
23
19
ED
FA
0C
11
24
DC
F5
06
1F
D3
D2
E4
28
28
FC
FC
E9
FF
1D
1E
FB
FC
FB
21
0A
F0
00
FB
F7
15
14
FA
36
15
0F
28
32
1A
14
2A
FA
12
10
14
38
D0
3E
3F
E9
12
19
E6
D7
1B
E9
E7
D6
13
0A
E6
15
DE
10
34
24
D0
3B
F4
19
19
F8
16
DA
12
0C
F2
08
14
E6
DD
04
3A
F1
0B
DC
E7
DD
D8
E3
29
E3
CE
19
1E
08
D0
14
1C
11
F3
E2
0E
DD
09
DE
2A
DB
F3
29
F0
03
E8
14
27
1C
D8
23
E8
EB
33
FC
E6
23
0A
39
E7
17
3D
1E
08
0A
E1
FE
F9
EE
31
E8
D8
CF
1E
28
E6
FA
29
BC
DF
31
E7
12
E9
E6
2D
2D
FC
41
F6
D5
D2
1C
E2
D6
0E
F5
EB
E3
D3
0F
05
29
09
EC
F3
FC
24
EC
F3
06
0D
F3
2C
19
07
0D
F1
06
01
E3
F7
D5
EE
E7
DD
23
1B
10
EC
E5
00
1A
E2
0B
FE
07
1F
03
FA
FF
29
EA
DD
D7
1F
0A
24
24
F9
E3
E5
2A
06
2C
F1
F5
08
DC
1C
2B
D7
EA
13
25
F0
F8
D1
D7
14
20
F8
F2
D8
01
29
25
06
E3
03
13
DA
14
FB
DF
DA
27
2B
1B
15
DD
16
CB
D6
D9
E9
2B
06
25
0A
FB
F8
F9
31
CF
D6
CB
CA
25
F6
2B
E1
04
E6
D3
2B
F9
E4
1F
EA
F8
44
F1
F3
22
43
EA
E0
F4
FF
33
E7
F0
B9
09
F7
D6
FD
DD
F9
32
FF
30
30
E3
E5
01
E9
FE
FA
D9
2A
CA
E6
E4
12
D0
E4
08
3F
F4
09
3C
E7
13
FA
E3
FF
F5
E6
F3
C7
08
21
D4
E9
2C
25
2D
0D
17
1F
0F
DD
24
0A
E5
11
FF
E9
14
F3
1D
21
EC
E2
D5
EF
19
29
F6
D7
F6
DB
1E
F6
F6
E7
02
E4
01
F0
15
D3
17
28
00
DA
27
1D
24
11
D3
FF
0D
E5
FA
15
D9
F3
E9
F1
DD
EB
F3
E8
1A
27
03
FF
FF
FC
0A
25
F9
DF
D4
2D
D7
DE
E2
EB
1C
0D
1A
1E
E4
06
0C
F0
06
26
09
F6
D6
25
16
10
1A
F7
13
2C
F4
19
10
16
15
25
F4
F0
FD
E3
04
04
FB
1F
27
DC
D7
12
DE
DE
DD
08
E0
04
FE
2B
14
2C
DE
02
F0
2B
12
FE
E3
18
DF
0F
07
D6
1A
FF
F3
27
FC
D9
DA
19
D0
01
D8
08
EC
D2
F4
2B
33
DE
C4
04
EC
F2
32
F8
04
FE
08
12
09
F7
14
D7
19
19
F0
E4
07
F7
FB
1F
D1
11
25
15
CC
ED
FE
EA
11
01
DE
F2
0A
20
FA
F5
E7
24
33
18
F6
11
08
DE
22
D4
DB
F7
EF
1D
CA
F4
D7
EF
FB
1D
04
13
E7
21
10
44
17
D4
C4
F1
0D
29
E3
DA
EF
18
24
16
E2
ED
DF
31
28
1C
32
D3
FA
42
DE
24
CD
FC
E9
F2
D0
FC
3D
07
44
1F
DB
22
F1
D8
E3
14
1D
F0
D3
4A
1E
19
E3
0A
14
17
F6
D7
ED
EC
01
F8
2B
DF
E6
FB
FB
D3
23
DB
E9
06
08
EC
28
EC
0F
1B
13
E7
27
0F
0A
09
1F
F1
F3
23
ED
29
E8
28
0D
1C
29
E7
0F
EC
EF
D6
19
04
E6
20
20
2B
D5
D3
F8
14
D7
25
05
E6
1D
DD
05
2D
EB
D3
F2
DF
E1
F6
ED
D6
FF
27
10
0B
02
1F
1B
EC
00
29
F8
E2
E3
FD
EA
0C
F9
DB
25
FB
D6
FD
16
F0
28
23
FC
1B
11
25
F3
24
27
05
11
EB
0E
16
FC
F1
E2
22
0F
13
EE
23
DC
0D
12
14
F1
19
1D
E6
DD
33
37
11
24
25
DA
12
DE
F2
14
11
EF
06
07
09
07
E9
F9
DB
F4
11
DF
0B
0E
C5
D1
12
DF
10
02
D9
01
C9
12
23
02
11
D8
0F
36
F9
19
D1
F1
04
13
33
1D
FA
13
F9
E2
E5
35
23
E5
27
F9
E6
DF
24
E3
FC
DF
EE
14
F8
26
E3
06
17
F7
0F
E5
1A
09
16
E9
0A
FC
2A
FC
04
EF
E9
0E
F5
0F
FE
18
02
DF
F8
20
2A
F6
DE
E0
DA
1B
E0
FC
11
D3
EE
10
0E
D6
EC
01
DA
DD
EF
10
00
DD
F6
03
FE
16
ED
1E
17
D3
09
F4
FC
22
0B
1E
D9
DC
E8
DB
1A
DD
DF
0B
07
13
25
DA
0B
F3
28
03
F5
F5
07
1A
F1
03
D6
0B
22
1B
0F
12
11
20
14
E2
29
12
D7
17
0E
E4
FC
E5
D3
04
2C
11
0D
25
19
DF
F9
11
02
E5
D4
16
2D
F8
D4
F5
21
2A
DE
DF
09
02
05
3E
10
10
F9
FB
E3
EF
D4
1E
F1
C3
09
28
FF
DF
E0
1F
F4
F2
25
0A
25
F4
FD
24
F6
FE
26
DF
CE
FE
1F
E2
11
20
FE
FC
28
1C
F0
E1
DB
FD
D1
24
24
C7
CE
17
0C
ED
F0
F3
0D
E7
05
42
0C
29
E6
EF
E0
22
E3
CC
1C
F7
E0
DA
EE
BC
FC
06
2C
23
DD
39
33
E2
E7
02
E2
CD
15
20
29
08
E9
39
F1
2C
F0
2B
26
03
D0
E6
2B
01
06
FB
2C
FB
FB
15
DC
EA
23
01
16
D2
04
D2
05
3A
FD
1D
F1
F4
1E
0D
DC
D6
20
F8
0F
D1
EF
29
DF
D8
08
E2
15
1D
05
24
EC
D1
E6
18
E2
C6
E9
DC
D3
0D
24
D9
E2
D4
E2
14
28
1B
15
F2
29
E5
08
00
F9
ED
D3
12
F6
E8
14
C6
D3
2E
D5
1B
09
39
18
0C
D7
CE
FD
DB
EF
E7
18
1A
FD
D5
ED
2C
1B
1C
D8
FC
E9
D5
22
E6
F2
28
FE
D3
0C
26
D9
26
F0
F5
22
17
F5
06
EC
E3
17
E6
EF
20
F3
21
FC
2B
D7
02
1E
E5
EF
F6
27
05
01
0E
FB
1F
07
F4
DD
FD
E2
ED
15
19
10
09
0C
EB
0F
10
05
10
1E
0B
E6
EE
06
CE
1E
03
D8
19
01
DF
26
04
E7
0A
F0
EC
D4
37
3E
EF
07
DA
F3
EC
21
F1
F6
2A
EB
43
F2
EE
02
26
34
0C
28
31
DF
09
F2
C8
28
DD
25
C6
D2
E6
DC
4D
17
09
49
09
02
FE
E5
07
02
EA
02
0F
3D
0E
F5
D1
03
D0
DE
FE
29
F0
06
0E
D5
2D
16
E4
2A
EF
07
F2
D4
F1
13
D7
E5
29
19
E0
2B
22
19
14
20
E9
EA
F0
27
E6
02
01
29
E6
0E
12
ED
F9
2B
2D
1A
01
D5
0E
29
00
EA
07
0B
10
23
E1
ED
17
EE
20
EA
FC
1D
D4
20
09
27
FD
FD
F1
1C
42
26
00
1A
1C
40
FF
1C
EA
02
13
F3
31
19
E7
D3
0B
2D
22
E6
0E
DF
1C
D6
EA
F6
E1
1C
F5
F6
1B
F0
00
BD
FA
D5
2E
07
FA
24
F4
16
14
1E
D7
FE
EE
18
22
F7
16
F5
D8
D8
28
19
1C
FB
1F
23
25
2B
EE
03
16
E0
FB
ED
05
D4
DC
06
0E
04
20
FA
1D
E6
E1
06
F9
EB
04
05
1E
E2
23
28
09
1B
D6
18
D5
E3
0C
DD
28
1D
F5
DB
0B
16
11
DE
F3
FA
01
F6
F1
0A
0E
04
02
F9
D5
F5
E3
1F
03
08
0C
08
E2
D4
2D
F8
1D
0F
F7
29
26
27
18
D5
F5
DD
DC
04
F3
DD
47
FE
0A
C4
DE
18
D2
F1
CF
2B
20
FA
C0
D9
F0
D2
D7
00
18
F3
13
B8
3B
D5
1C
02
E3
D2
F2
18
01
FC
F3
F4
16
E4
28
E0
42
02
18
F7
D5
DE
D7
26
0E
E5
FC
1C
05
2D
E3
13
1E
E6
E6
1B
03
EC
06
E3
02
EC
FC
E0
D9
09
0E
D8
FA
26
DA
E8
1E
D7
05
FE
E4
D9
22
19
16
E5
FA
15
E5
0F
FF
0B
18
0B
10
1E
07
FE
09
DA
FA
23
FF
E3
00
FE
E0
2C
29
03
19
E6
E6
FB
2C
FD
E5
2D
EE
0A
F1
28
F6
23
03
1A
15
D5
ED
FD
1D
2C
1A
12
E6
D7
EE
E5
F9
17
07
EC
18
0D
FB
0B
DE
E7
28
DF
E0
FC
27
E6
12
F1
E3
D6
24
F3
1C
D9
21
1D
F1
1D
06
18
09
DB
D8
1F
04
0D
FB
07
06
F6
0C
CC
2B
0C
E2
0D
0F
1C
D9
16
2B
DF
F6
1A
33
DE
34
EC
EC
E3
FA
E8
0B
E3
1D
F5
F3
0F
0C
24
DA
D6
EF
E9
E5
CD
14
1F
23
21
22
06
44
2E
0E
1E
D7
0F
0C
D6
18
E8
E4
02
F4
DC
24
07
17
E8
16
F2
17
1F
02
D1
1F
23
28
D9
F9
28
18
1C
01
E2
FA
D9
F5
09
19
04
22
DB
07
13
D6
01
1D
D6
19
23
E1
D9
08
F1
E5
27
E3
FF
D8
0C
E3
F3
18
EF
0C
24
DC
29
09
10
07
0C
FE
05
F7
0A
22
2A
EE
12
FF
D7
F8
E3
1C
24
F2
1A
26
1E
01
E6
1A
1F
26
E7
2D
02
21
04
E4
E4
F4
E6
D3
1F
14
0B
F6
24
0B
FD
F4
D5
02
14
F3
F2
D8
2C
05
29
0B
F6
1C
1E
11
E8
E8
F5
1E
1C
EF
16
0D
2C
01
E8
E0
F4
DA
F1
29
F5
F4
0E
15
0A
18
EC
13
F1
FC
F7
DE
D5
D4
0C
0F
22
DE
02
16
12
E3
EF
02
EB
24
DC
FF
F8
F0
DA
27
0C
17
D7
E4
F0
DA
16
11
D3
E6
EF
0D
EE
EA
EE
F0
F0
1E
11
E4
04
F3
FE
F7
D7
12
F6
02
D6
1D
2A
1F
0F
E4
FB
14
FD
DF
0B
E9
D5
D5
EF
2A
FA
E3
E8
E3
2B
27
FF
E8
1E
1E
D9
E0
0F
0B
F7
FF
0D
14
FD
F0
F8
F0
DA
03
DB
EF
F7
0A
18
01
DD
EE
1E
25
2A
F7
EB
FC
FD
D3
04
11
24
DF
0F
1A
0D
09
E6
D9
25
D6
04
22
D5
E0
DE
2D
F0
F8
09
34
FF
2D
FA
EA
F1
12
38
31
E8
19
37
F5
26
FD
E8
19
DC
E2
2D
D8
EA
D4
E1
F1
07
F7
38
F2
DC
E8
28
F1
1E
FD
23
10
F0
2A
0B
0D
1B
18
EF
19
0B
11
EB
13
05
1A
E0
E7
EA
C6
FE
F0
F8
DA
2F
05
0F
17
22
D7
2A
0B
0C
1A
0B
F4
FC
EA
FA
DD
D3
1A
F9
22
FC
F4
06
18
BE
D1
F5
27
E5
CB
28
38
DA
D5
11
0B
FF
0C
1F
29
F1
F7
24
3D
E8
2E
12
02
23
0F
F5
0B
17
16
1F
F7
30
C9
FC
23
0B
1D
F5
D2
F2
0B
DD
F0
07
14
28
13
0E
E4
E7
F6
28
02
2B
FC
F9
3C
E3
D1
03
D0
09
E4
CD
EE
19
EF
E4
E8
25
08
F6
F6
E5
34
03
F7
19
08
D5
D2
EB
3F
1A
BC
0B
0A
F5
0D
2E
FF
2A
15
F2
E0
D7
02
05
06
F5
E6
28
0A
20
17
FF
E5
1F
15
21
DA
D2
E7
E4
1B
D7
EB
F8
FC
3F
F4
19
DC
10
EE
24
D6
CD
20
D1
CF
F1
B9
EA
FF
1B
F9
E4
17
25
FA
05
0B
2E
1B
DC
0D
D9
C0
2F
E8
0D
36
33
CB
E8
21
21
20
DF
DE
FB
CB
E2
E3
27
0C
F7
EA
FF
DE
D4
D3
FC
E5
D7
F5
DC
1D
EC
1C
EE
EB
08
16
1D
06
22
05
01
0C
F5
E0
1D
E9
05
EE
1D
F2
E7
09
00
1C
FC
08
FD
F7
E6
F7
0E
0B
EA
DD
0A
E8
07
E2
FA
DA
D5
F7
12
F9
03
EA
F7
DB
26
25
12
18
1D
D7
EC
2D
46
15
E8
FC
FB
3E
DE
F2
FC
05
DC
E2
F9
2F
23
D3
08
1B
FE
E3
D9
F8
D9
DF
29
C3
E7
FD
EE
04
17
0B
FA
17
3D
17
11
E2
DE
15
D9
02
08
C4
EF
45
18
E6
D8
E0
04
27
CA
00
15
0C
19
1B
E3
07
D1
16
EB
06
B8
F9
24
39
E8
C3
ED
F0
35
02
E6
16
E6
1D
0C
40
21
DA
D3
D4
3E
D5
09
D1
2A
2C
F2
FD
EB
EA
17
D2
DB
EA
B4
EA
FB
EC
D4
E8
22
43
DC
DE
EE
F7
04
17
D8
35
DD
1E
DC
EB
11
2C
C5
25
11
E2
09
2E
24
E8
34
DF
DF
16
13
03
D1
F3
E1
E1
2D
C9
D4
3E
DF
F0
12
01
DF
F0
D3
0B
1D
E8
E7
15
E3
1E
F7
F6
1D
17
03
13
F2
F3
EC
2B
15
46
FC
28
2F
04
FF
07
EB
1F
09
01
13
D5
25
E8
23
DE
F7
13
E9

